{
  "version": "1.0",
  "truncation": null,
  "padding": {
    "strategy": "BatchLongest",
    "direction": "Right",
    "pad_to_multiple_of": null,
    "pad_id": 0,
    "pad_type_id": 0,
    "pad_token": "<pad>"
  },
  "added_tokens": [
    {
      "id": 0,
      "content": "<pad>",
      "single_word": false,
      "lstrip": false,
      "rstrip": false,
      "normalized": false,
      "special": true
    },
    {
      "id": 1,
      "content": "<start>",
      "single_word": false,
      "lstrip": false,
      "rstrip": false,
      "normalized": false,
      "special": true
    },
    {
      "id": 2,
      "content": "<end>",
      "single_word": false,
      "lstrip": false,
      "rstrip": false,
      "normalized": false,
      "special": true
    },
    {
      "id": 3,
      "content": "<unk>",
      "single_word": false,
      "lstrip": false,
      "rstrip": false,
      "normalized": false,
      "special": true
    }
  ],
  "normalizer": null,
  "pre_tokenizer": {
    "type": "WhitespaceSplit"
  },
  "post_processor": null,
  "decoder": null,
  "model": {
    "type": "WordPiece",
    "unk_token": "<unk>",
    "continuing_subword_prefix": "##",
    "max_input_chars_per_word": 100,
    "vocab": {
      "<pad>": 0,
      "<start>": 1,
      "<end>": 2,
      "<unk>": 3,
      "!": 4,
      "\"": 5,
      "#": 6,
      "$": 7,
      "%": 8,
      "&": 9,
      "'": 10,
      "(": 11,
      ")": 12,
      "*": 13,
      "+": 14,
      ",": 15,
      "-": 16,
      ".": 17,
      "/": 18,
      "0": 19,
      "1": 20,
      "2": 21,
      "3": 22,
      "4": 23,
      "5": 24,
      "6": 25,
      "7": 26,
      "8": 27,
      "9": 28,
      ":": 29,
      ";": 30,
      ">": 31,
      "?": 32,
      "A": 33,
      "B": 34,
      "C": 35,
      "D": 36,
      "E": 37,
      "F": 38,
      "G": 39,
      "H": 40,
      "I": 41,
      "J": 42,
      "K": 43,
      "L": 44,
      "M": 45,
      "N": 46,
      "O": 47,
      "P": 48,
      "Q": 49,
      "R": 50,
      "S": 51,
      "T": 52,
      "U": 53,
      "V": 54,
      "W": 55,
      "X": 56,
      "Y": 57,
      "Z": 58,
      "[": 59,
      "]": 60,
      "`": 61,
      "a": 62,
      "b": 63,
      "c": 64,
      "d": 65,
      "e": 66,
      "f": 67,
      "g": 68,
      "h": 69,
      "i": 70,
      "j": 71,
      "k": 72,
      "l": 73,
      "m": 74,
      "n": 75,
      "o": 76,
      "p": 77,
      "q": 78,
      "r": 79,
      "s": 80,
      "t": 81,
      "u": 82,
      "v": 83,
      "w": 84,
      "x": 85,
      "y": 86,
      "z": 87,
      "{": 88,
      "}": 89,
      "é": 90,
      "ñ": 91,
      "–": 92,
      "’": 93,
      "‚": 94,
      "“": 95,
      "”": 96,
      "﻿": 97,
      "##u": 98,
      "##s": 99,
      "##i": 100,
      "##c": 101,
      "##n": 102,
      "##d": 103,
      "##v": 104,
      "##o": 105,
      "##r": 106,
      "##e": 107,
      "##a": 108,
      "##t": 109,
      "##S": 110,
      "##l": 111,
      "##p": 112,
      "##w": 113,
      "##k": 114,
      "##g": 115,
      "##\"": 116,
      "##m": 117,
      "##.": 118,
      "##h": 119,
      "##y": 120,
      "##I": 121,
      "##N": 122,
      "##G": 123,
      "##L": 124,
      "##E": 125,
      "##?": 126,
      "##b": 127,
      "##!": 128,
      "##,": 129,
      "##-": 130,
      "##f": 131,
      "##F": 132,
      "##'": 133,
      "##﻿": 134,
      "##6": 135,
      "##5": 136,
      "##0": 137,
      "##1": 138,
      "##8": 139,
      "##9": 140,
      "##z": 141,
      "##P": 142,
      "##A": 143,
      "##T": 144,
      "##Y": 145,
      "##j": 146,
      "##B": 147,
      "##C": 148,
      "##R": 149,
      "##K": 150,
      "##M": 151,
      "##V": 152,
      "##D": 153,
      "##x": 154,
      "##3": 155,
      "##q": 156,
      "##‚": 157,
      "##&": 158,
      "##7": 159,
      "##2": 160,
      "##H": 161,
      "##O": 162,
      "##U": 163,
      "##:": 164,
      "##4": 165,
      "##W": 166,
      "##)": 167,
      "##+": 168,
      "##;": 169,
      "##J": 170,
      "##/": 171,
      "##]": 172,
      "##$": 173,
      "##’": 174,
      "##é": 175,
      "##Z": 176,
      "##ñ": 177,
      "##*": 178,
      "##X": 179,
      "##>": 180,
      "##Q": 181,
      "##`": 182,
      "##}": 183,
      "##%": 184,
      "##”": 185,
      "th": 186,
      "##ou": 187,
      "##at": 188,
      "##er": 189,
      "##in": 190,
      "the": 191,
      "##on": 192,
      "##ea": 193,
      "##ll": 194,
      "##re": 195,
      "##nd": 196,
      "##st": 197,
      "to": 198,
      "##en": 199,
      "you": 200,
      "##ing": 201,
      "li": 202,
      "##ic": 203,
      "##es": 204,
      "##ve": 205,
      "of": 206,
      "##ke": 207,
      "##an": 208,
      "##or": 209,
      "##it": 210,
      "it": 211,
      "##hat": 212,
      "that": 213,
      "##me": 214,
      "##as": 215,
      "##'s": 216,
      "##ow": 217,
      "is": 218,
      "like": 219,
      "##he": 220,
      "##us": 221,
      "##ot": 222,
      "##ay": 223,
      "##ut": 224,
      "ha": 225,
      "##ed": 226,
      "on": 227,
      "and": 228,
      "##ong": 229,
      "be": 230,
      "in": 231,
      "##usic": 232,
      "music": 233,
      "##oo": 234,
      "so": 235,
      "##ar": 236,
      "song": 237,
      "##lly": 238,
      "##is": 239,
      "do": 240,
      "##ld": 241,
      "##id": 242,
      "was": 243,
      "##le": 244,
      "##'t": 245,
      "##gh": 246,
      "al": 247,
      "##ear": 248,
      "##ir": 249,
      "st": 250,
      "##e.": 251,
      "have": 252,
      "they": 253,
      "What": 254,
      "##ly": 255,
      "##et": 256,
      "##al": 257,
      "##s.": 258,
      "##eah": 259,
      "The": 260,
      "are": 261,
      "##ck": 262,
      "##eally": 263,
      "##um": 264,
      "##ere": 265,
      "##om": 266,
      "##ver": 267,
      "##ink": 268,
      "wh": 269,
      "##ood": 270,
      "an": 271,
      "ba": 272,
      "It": 273,
      "but": 274,
      "think": 275,
      "##ch": 276,
      "##ould": 277,
      "Yeah": 278,
      "I'": 279,
      "kn": 280,
      "##th": 281,
      "##ell": 282,
      "really": 283,
      "list": 284,
      "fa": 285,
      "##ent": 286,
      "for": 287,
      "##ite": 288,
      "listen": 289,
      "know": 290,
      "he": 291,
      "##ith": 292,
      "hear": 293,
      "##ght": 294,
      "##ust": 295,
      "##op": 296,
      "good": 297,
      "some": 298,
      "##ound": 299,
      "##out": 300,
      "##ee": 301,
      "ab": 302,
      "not": 303,
      "That": 304,
      "##se": 305,
      "##ill": 306,
      "ne": 307,
      "re": 308,
      "##ove": 309,
      "about": 310,
      "them": 311,
      "##bum": 312,
      "album": 313,
      "with": 314,
      "##ct": 315,
      "Yes": 316,
      "too": 317,
      "one": 318,
      "##ight": 319,
      "##vor": 320,
      "mo": 321,
      "favor": 322,
      "Wh": 323,
      "pl": 324,
      "my": 325,
      "what": 326,
      "Oh": 327,
      "##im": 328,
      "band": 329,
      "just": 330,
      "don": 331,
      "did": 332,
      "love": 333,
      "##ion": 334,
      "##reat": 335,
      "su": 336,
      "her": 337,
      "their": 338,
      "heard": 339,
      "##ad": 340,
      "##ind": 341,
      "fr": 342,
      "me": 343,
      "You": 344,
      "any": 345,
      "Do": 346,
      "favorite": 347,
      "##tt": 348,
      "##ce": 349,
      "He": 350,
      "all": 351,
      "##ff": 352,
      "##ry": 353,
      "##un": 354,
      "##ra": 355,
      "play": 356,
      "can": 357,
      "They": 358,
      "out": 359,
      "##n't": 360,
      "sound": 361,
      "great": 362,
      "your": 363,
      "##ame": 364,
      "##nt": 365,
      "##ist": 366,
      "sh": 367,
      "she": 368,
      "songs": 369,
      "##ie": 370,
      "don't": 371,
      "##ally": 372,
      "from": 373,
      "Well": 374,
      "as": 375,
      "Yeah,": 376,
      "would": 377,
      "his": 378,
      "go": 379,
      "##ime": 380,
      "or": 381,
      "sing": 382,
      "No": 383,
      "ar": 384,
      "see": 385,
      "##ome": 386,
      "it.": 387,
      "##ro": 388,
      "lot": 389,
      "##ough": 390,
      "##..": 391,
      "time": 392,
      "##ing.": 393,
      "new": 394,
      "##all": 395,
      "ever": 396,
      "I'm": 397,
      "##ven": 398,
      "con": 399,
      "gu": 400,
      "has": 401,
      "It's": 402,
      "##ul": 403,
      "ma": 404,
      "at": 405,
      "##ock": 406,
      "##pp": 407,
      "stu": 408,
      "am": 409,
      "That's": 410,
      "##ers": 411,
      "been": 412,
      "##er.": 413,
      "##ool": 414,
      "kind": 415,
      "##ive": 416,
      "cou": 417,
      "Yes,": 418,
      "##ig": 419,
      "music.": 420,
      "##es.": 421,
      "##ant": 422,
      "get": 423,
      "Th": 424,
      "##ert": 425,
      "it's": 426,
      "##ge": 427,
      "##art": 428,
      "up": 429,
      "##ur": 430,
      "##'re": 431,
      "int": 432,
      "##s,": 433,
      "this": 434,
      "pre": 435,
      "who": 436,
      "##s?": 437,
      "How": 438,
      "Ha": 439,
      "pop": 440,
      "##ean": 441,
      "##thing": 442,
      "##uch": 443,
      "##ast": 444,
      "##so": 445,
      "more": 446,
      "se": 447,
      "##one": 448,
      "stuff": 449,
      "de": 450,
      "when": 451,
      "had": 452,
      "fe": 453,
      "##il": 454,
      "##pe": 455,
      "him": 456,
      "##ther": 457,
      "ag": 458,
      "much": 459,
      "were": 460,
      "rock": 461,
      "##ass": 462,
      "##ate": 463,
      "##ess": 464,
      "Well,": 465,
      "ch": 466,
      "too.": 467,
      "does": 468,
      "So": 469,
      "##y.": 470,
      "by": 471,
      "##az": 472,
      "other": 473,
      "right": 474,
      "we": 475,
      "##way": 476,
      "##am": 477,
      "I've": 478,
      "art": 479,
      "com": 480,
      "##ue": 481,
      "##be": 482,
      "if": 483,
      "there": 484,
      "old": 485,
      "##ually": 486,
      "man": 487,
      "artist": 488,
      "##and": 489,
      "##tty": 490,
      "##ead": 491,
      "wor": 492,
      "She": 493,
      "cl": 494,
      "still": 495,
      "Who": 496,
      "##ber": 497,
      "say": 498,
      "year": 499,
      "mean": 500,
      "##ore": 501,
      "##ntry": 502,
      "##ice": 503,
      "##os": 504,
      "##ery": 505,
      "will": 506,
      "##ure": 507,
      "sure": 508,
      "##ose": 509,
      "pretty": 510,
      "##oth": 511,
      "listening": 512,
      "##ap": 513,
      "that's": 514,
      "##ich": 515,
      "conc": 516,
      "ex": 517,
      "tr": 518,
      "##ian": 519,
      "how": 520,
      "call": 521,
      "act": 522,
      "concert": 523,
      "now": 524,
      "##ab": 525,
      "##oy": 526,
      "##ain": 527,
      "##ide": 528,
      "very": 529,
      "though": 530,
      "##if": 531,
      "Oh,": 532,
      "##io": 533,
      "got": 534,
      "rec": 535,
      "Have": 536,
      "sounds": 537,
      "should": 538,
      "No,": 539,
      "di": 540,
      "that.": 541,
      "pro": 542,
      "country": 543,
      "us": 544,
      "well": 545,
      "also": 546,
      "vo": 547,
      "want": 548,
      "most": 549,
      "yeah": 550,
      "music?": 551,
      "called": 552,
      "gen": 553,
      "gr": 554,
      "##our": 555,
      "##ne": 556,
      "cool": 557,
      "##ter": 558,
      "sa": 559,
      "##ation": 560,
      "##erf": 561,
      "back": 562,
      "##ine": 563,
      "Did": 564,
      "best": 565,
      "##ook": 566,
      "##fin": 567,
      "every": 568,
      "Is": 569,
      "Me": 570,
      "aw": 571,
      "##ed.": 572,
      "fun": 573,
      "good.": 574,
      "St": 575,
      "no": 576,
      "##ag": 577,
      "##irst": 578,
      "tal": 579,
      "##eop": 580,
      "##ard": 581,
      "never": 582,
      "##eople": 583,
      "show": 584,
      "first": 585,
      "##mber": 586,
      "few": 587,
      "way": 588,
      "##ick": 589,
      "then": 590,
      "last": 591,
      "And": 592,
      "them.": 593,
      "could": 594,
      "people": 595,
      "##ang": 596,
      "##assic": 597,
      "actually": 598,
      "##finite": 599,
      "##ways": 600,
      "even": 601,
      "##ond": 602,
      "##ree": 603,
      "##finitely": 604,
      "Be": 605,
      "##ip": 606,
      "going": 607,
      "song.": 608,
      "Ch": 609,
      "many": 610,
      "didn't": 611,
      "##ost": 612,
      "en": 613,
      "fan": 614,
      "always": 615,
      "##ular": 616,
      "##ffer": 617,
      "##ol": 618,
      "live": 619,
      "bec": 620,
      "##ny": 621,
      "Really": 622,
      "Not": 623,
      "perf": 624,
      "those": 625,
      "it?": 626,
      "classic": 627,
      "Ok": 628,
      "##member": 629,
      "What's": 630,
      "##ike": 631,
      "Why": 632,
      "##esome": 633,
      "##use": 634,
      "##own": 635,
      "differ": 636,
      "##adio": 637,
      "che": 638,
      "than": 639,
      "##eel": 640,
      "like?": 641,
      "I'll": 642,
      "But": 643,
      "##ake": 644,
      "##ous": 645,
      "##ci": 646,
      "##res": 647,
      "into": 648,
      "vide": 649,
      "big": 650,
      "##ause": 651,
      "##oup": 652,
      "##aybe": 653,
      "different": 654,
      "same": 655,
      "##eas": 656,
      "##ack": 657,
      "##king": 658,
      "##ort": 659,
      "long": 660,
      "##rum": 661,
      "remember": 662,
      "##ies": 663,
      "##ance": 664,
      "group": 665,
      "We": 666,
      "##le.": 667,
      "over": 668,
      "##ly.": 669,
      "one.": 670,
      "bands": 671,
      "you?": 672,
      "time.": 673,
      "wr": 674,
      "##kes": 675,
      "har": 676,
      "make": 677,
      "day": 678,
      "##ish": 679,
      "##o.": 680,
      "##orm": 681,
      "name": 682,
      "##les": 683,
      "thing": 684,
      "check": 685,
      "that?": 686,
      "##ven't": 687,
      "start": 688,
      "definitely": 689,
      "Like": 690,
      "##d.": 691,
      "##oll": 692,
      "##ought": 693,
      "songs.": 694,
      "litt": 695,
      "singer": 696,
      "feel": 697,
      "rel": 698,
      "comp": 699,
      "haven't": 700,
      "##erest": 701,
      "##...": 702,
      "My": 703,
      "radio": 704,
      "##ib": 705,
      "can't": 706,
      "tw": 707,
      "genre": 708,
      "##ord": 709,
      "##ric": 710,
      "##are": 711,
      "guess": 712,
      "##azz": 713,
      "because": 714,
      "rap": 715,
      "##mer": 716,
      "##el": 717,
      "awesome": 718,
      "album.": 719,
      "##ac": 720,
      "amaz": 721,
      "hit": 722,
      "##ire": 723,
      "something": 724,
      "##day": 725,
      "saw": 726,
      "little": 727,
      "only": 728,
      "seen": 729,
      "part": 730,
      "##od": 731,
      "There": 732,
      "Are": 733,
      "Br": 734,
      "look": 735,
      "around": 736,
      "##ep": 737,
      "##anc": 738,
      "##bab": 739,
      "TH": 740,
      "Al": 741,
      "##ince": 742,
      "Really?": 743,
      "fam": 744,
      "##atch": 745,
      "##ade": 746,
      "bett": 747,
      "##per": 748,
      "##eal": 749,
      "why": 750,
      "##ia": 751,
      "##lf": 752,
      "##bably": 753,
      "hard": 754,
      "might": 755,
      "popular": 756,
      "##ms": 757,
      "though.": 758,
      "met": 759,
      "##ha": 760,
      "br": 761,
      "tour": 762,
      "##y,": 763,
      "bl": 764,
      "##iv": 765,
      "used": 766,
      "##ix": 767,
      "He's": 768,
      "Bl": 769,
      "Some": 770,
      "##0's": 771,
      "know,": 772,
      "They're": 773,
      "interest": 774,
      "perform": 775,
      "late": 776,
      "##get": 777,
      "el": 778,
      "anything": 779,
      "years": 780,
      "try": 781,
      "song?": 782,
      "mov": 783,
      "##other": 784,
      "##al.": 785,
      "Okay": 786,
      "its": 787,
      "##ud": 788,
      "##fore": 789,
      "Ne": 790,
      "Wow": 791,
      "##itar": 792,
      "listened": 793,
      "##rack": 794,
      "##mm": 795,
      "##her": 796,
      "voice": 797,
      "Just": 798,
      "inst": 799,
      "talent": 800,
      "ly": 801,
      "he's": 802,
      "video": 803,
      "De": 804,
      "##ng": 805,
      "come": 806,
      "##act": 807,
      "liked": 808,
      "work": 809,
      "to?": 810,
      "guitar": 811,
      "##ris": 812,
      "##mp": 813,
      "##es,": 814,
      "lyric": 815,
      "ty": 816,
      "##fter": 817,
      "thought": 818,
      "happ": 819,
      "before": 820,
      "I'd": 821,
      "out.": 822,
      "hop": 823,
      "came": 824,
      "put": 825,
      "##est": 826,
      "##ress": 827,
      "##iz": 828,
      "##nder": 829,
      "##ile": 830,
      "##orn": 831,
      "too,": 832,
      "##ting": 833,
      "favorit": 834,
      "Jo": 835,
      "such": 836,
      "jazz": 837,
      "##on.": 838,
      "off": 839,
      "two": 840,
      "dr": 841,
      "they're": 842,
      "cool.": 843,
      "20": 844,
      "Any": 845,
      "##up": 846,
      "##ing,": 847,
      "sty": 848,
      "which": 849,
      "great.": 850,
      "##ach": 851,
      "##ute": 852,
      "guy": 853,
      "Tr": 854,
      "##ub": 855,
      "played": 856,
      "artists": 857,
      "Maybe": 858,
      "playing": 859,
      "makes": 860,
      "enj": 861,
      "else": 862,
      "te": 863,
      "un": 864,
      "##ect": 865,
      "##tim": 866,
      "##wn": 867,
      "music,": 868,
      "right?": 869,
      "Sound": 870,
      "need": 871,
      "album?": 872,
      "recent": 873,
      "better": 874,
      "instrum": 875,
      "ok": 876,
      "enjoy": 877,
      "instrument": 878,
      "qu": 879,
      "##ob": 880,
      "thr": 881,
      "know.": 882,
      "##ious": 883,
      "##over": 884,
      "##ten": 885,
      "since": 886,
      "##red": 887,
      "after": 888,
      "kid": 889,
      "dont": 890,
      "toget": 891,
      "musician": 892,
      "##peci": 893,
      "THE": 894,
      "##na": 895,
      "albums": 896,
      "metal": 897,
      "give": 898,
      "lea": 899,
      "seems": 900,
      "yeah,": 901,
      "find": 902,
      "probably": 903,
      "sc": 904,
      "##OU": 905,
      "band.": 906,
      "she's": 907,
      "down": 908,
      "##app": 909,
      "##'ve": 910,
      "##ked": 911,
      "sp": 912,
      "is.": 913,
      "went": 914,
      "##lo": 915,
      "bet": 916,
      "them?": 917,
      "cour": 918,
      "In": 919,
      "bit": 920,
      "##ion.": 921,
      "agree": 922,
      "bu": 923,
      "stuff.": 924,
      "me.": 925,
      "##ue.": 926,
      "##son": 927,
      "beat": 928,
      "well.": 929,
      "dis": 930,
      "##igh": 931,
      "##lie": 932,
      "##int": 933,
      "##eak": 934,
      "ad": 935,
      "##ug": 936,
      "do.": 937,
      "Which": 938,
      "it,": 939,
      "##ark": 940,
      "Beat": 941,
      "amazing": 942,
      "Good": 943,
      "Yea": 944,
      "wee": 945,
      "##self": 946,
      "made": 947,
      "##du": 948,
      "doing": 949,
      "##irl": 950,
      "One": 951,
      "song,": 952,
      "##ank": 953,
      "##ird": 954,
      "When": 955,
      "both": 956,
      "##cal": 957,
      "##h,": 958,
      "##ple": 959,
      "##ity": 960,
      "Yes.": 961,
      "type": 962,
      "real": 963,
      "##ment": 964,
      "##ce.": 965,
      "##\".": 966,
      "##ice.": 967,
      "another": 968,
      "sure.": 969,
      "All": 970,
      "str": 971,
      "Sh": 972,
      "hip": 973,
      "##hn": 974,
      "##NG": 975,
      "##ree.": 976,
      "happen": 977,
      "sad": 978,
      "##e,": 979,
      "##we": 980,
      "##'ll": 981,
      "today": 982,
      "you're": 983,
      "##iss": 984,
      "Yeah.": 985,
      "##ili": 986,
      "now.": 987,
      "through": 988,
      "let": 989,
      "where": 990,
      "older": 991,
      "releas": 992,
      "##nat": 993,
      "##a.": 994,
      "Can": 995,
      "dance": 996,
      "op": 997,
      "##ait": 998,
      "##ly?": 999,
      "John": 1000,
      "take": 1001,
      "wond": 1002,
      "ear": 1003,
      "##ER": 1004,
      "you.": 1005,
      "band?": 1006,
      "doesn't": 1007,
      "record": 1008,
      "Sounds": 1009,
      "##end": 1010,
      "##eep": 1011,
      "right.": 1012,
      "Sp": 1013,
      "Yep": 1014,
      "##pl": 1015,
      "course": 1016,
      "Cl": 1017,
      "Mar": 1018,
      "app": 1019,
      "tell": 1020,
      "Cool": 1021,
      "##ated": 1022,
      "while": 1023,
      "##unk": 1024,
      "him.": 1025,
      "19": 1026,
      "Sure": 1027,
      "pers": 1028,
      "##che": 1029,
      "##ar.": 1030,
      "loved": 1031,
      "##meric": 1032,
      "Wow,": 1033,
      "least": 1034,
      "##lieve": 1035,
      "cover": 1036,
      "maybe": 1037,
      "##se.": 1038,
      "##og": 1039,
      "musical": 1040,
      "sch": 1041,
      "##eam": 1042,
      "##iend": 1043,
      "school": 1044,
      "Music": 1045,
      "ind": 1046,
      "sort": 1047,
      "track": 1048,
      "##xt": 1049,
      "##ket": 1050,
      "again": 1051,
      "Americ": 1052,
      "Man": 1053,
      "tim": 1054,
      "##age": 1055,
      "##lt": 1056,
      "##eaut": 1057,
      "cra": 1058,
      "catch": 1059,
      "##AT": 1060,
      "##eav": 1061,
      "to.": 1062,
      "that,": 1063,
      "##ash": 1064,
      "bad": 1065,
      "good?": 1066,
      "true": 1067,
      "writ": 1068,
      "high": 1069,
      "under": 1070,
      "##ath": 1071,
      "whole": 1072,
      "lead": 1073,
      "##ace": 1074,
      "##LL": 1075,
      "##med": 1076,
      "##lect": 1077,
      "##times": 1078,
      "\"S": 1079,
      "##y?": 1080,
      "##0s": 1081,
      "these": 1082,
      "##on't": 1083,
      "believe": 1084,
      "wasn't": 1085,
      "started": 1086,
      "famili": 1087,
      "If": 1088,
      "Re": 1089,
      "##old": 1090,
      "##lp": 1091,
      "##lute": 1092,
      "##urn": 1093,
      "Okay,": 1094,
      "hu": 1095,
      "##ly,": 1096,
      "##eautif": 1097,
      "bas": 1098,
      "eith": 1099,
      "##eautiful": 1100,
      "An": 1101,
      "Ar": 1102,
      "##ron": 1103,
      "ther": 1104,
      "top": 1105,
      "station": 1106,
      "okay": 1107,
      "YOU": 1108,
      "##ND": 1109,
      "sur": 1110,
      "Does": 1111,
      "songs?": 1112,
      "cont": 1113,
      "id": 1114,
      "##oint": 1115,
      "This": 1116,
      "##ertain": 1117,
      "She's": 1118,
      "wonder": 1119,
      "His": 1120,
      "mix": 1121,
      "own": 1122,
      "##mend": 1123,
      "Rock": 1124,
      "use": 1125,
      "##ew": 1126,
      "##mb": 1127,
      "##ern": 1128,
      "help": 1129,
      "chan": 1130,
      "lyrics": 1131,
      "buy": 1132,
      "released": 1133,
      "heav": 1134,
      "yet": 1135,
      "##cc": 1136,
      "##cond": 1137,
      "##'d": 1138,
      "alr": 1139,
      "##ommend": 1140,
      "orig": 1141,
      "##solute": 1142,
      "recommend": 1143,
      "quite": 1144,
      "Pr": 1145,
      "drum": 1146,
      "rapp": 1147,
      "##ving": 1148,
      "##es?": 1149,
      "##onest": 1150,
      "CD": 1151,
      "lo": 1152,
      "Their": 1153,
      "too!": 1154,
      "##ight.": 1155,
      "No.": 1156,
      "ago.": 1157,
      "OF": 1158,
      "beautiful": 1159,
      "##ild": 1160,
      "##ically": 1161,
      "##ess.": 1162,
      "main": 1163,
      "dec": 1164,
      "##ney": 1165,
      "##ody": 1166,
      "person": 1167,
      "origin": 1168,
      "Was": 1169,
      "danc": 1170,
      "##EA": 1171,
      "singing": 1172,
      "SO": 1173,
      "girl": 1174,
      "oh": 1175,
      "##man": 1176,
      "##most": 1177,
      "##ful": 1178,
      "being": 1179,
      "rem": 1180,
      "what?": 1181,
      "cons": 1182,
      "said": 1183,
      "New": 1184,
      "Ex": 1185,
      "Let": 1186,
      "Of": 1187,
      "wish": 1188,
      "##ies.": 1189,
      "##ale": 1190,
      "##her.": 1191,
      "##fer": 1192,
      "##ater": 1193,
      "agree.": 1194,
      "weird": 1195,
      "##eason": 1196,
      "movie": 1197,
      "Pro": 1198,
      "nice": 1199,
      "ton": 1200,
      "##ever": 1201,
      "##ave": 1202,
      "getting": 1203,
      "there.": 1204,
      "For": 1205,
      "watch": 1206,
      "##e?": 1207,
      "so.": 1208,
      "Where": 1209,
      "up.": 1210,
      "second": 1211,
      "usually": 1212,
      "##pecially": 1213,
      "week": 1214,
      "Now": 1215,
      "##ull": 1216,
      "##gr": 1217,
      "almost": 1218,
      "Its": 1219,
      "##ternat": 1220,
      "##ternative": 1221,
      "Fr": 1222,
      "On": 1223,
      "OK": 1224,
      "here": 1225,
      "##specially": 1226,
      "##m.": 1227,
      "##ble": 1228,
      "solo": 1229,
      "albums.": 1230,
      "friend": 1231,
      "lot.": 1232,
      "there's": 1233,
      "craz": 1234,
      "Mich": 1235,
      "coll": 1236,
      "le": 1237,
      "may": 1238,
      "miss": 1239,
      "our": 1240,
      "##ah": 1241,
      "##er,": 1242,
      "inc": 1243,
      "really.": 1244,
      "next": 1245,
      "style": 1246,
      "##pt": 1247,
      "bad.": 1248,
      "\"T": 1249,
      "must": 1250,
      "wait": 1251,
      "##ube": 1252,
      "##ta": 1253,
      "rock.": 1254,
      "##ressive": 1255,
      "##duc": 1256,
      "mind": 1257,
      "##au": 1258,
      "##pris": 1259,
      "##ft": 1260,
      "ones": 1261,
      "##thing.": 1262,
      "Fl": 1263,
      "Her": 1264,
      "Jam": 1265,
      "Love": 1266,
      "sim": 1267,
      "##ied": 1268,
      "##ael": 1269,
      "##te": 1270,
      "isn't": 1271,
      "much.": 1272,
      "coming": 1273,
      "talk": 1274,
      "American": 1275,
      "Jack": 1276,
      "Met": 1277,
      "Sw": 1278,
      "creat": 1279,
      "yes": 1280,
      "##qu": 1281,
      "##er?": 1282,
      "##ory": 1283,
      "her.": 1284,
      "plays": 1285,
      "things": 1286,
      "Beatles": 1287,
      "Ad": 1288,
      "sm": 1289,
      "ta": 1290,
      "##VE": 1291,
      "##str": 1292,
      "##ary": 1293,
      "chang": 1294,
      "vocal": 1295,
      "Michael": 1296,
      "Ab": 1297,
      "Ever": 1298,
      "Gra": 1299,
      "care": 1300,
      "fl": 1301,
      "wow": 1302,
      "##rist": 1303,
      "##ph": 1304,
      "known": 1305,
      "Those": 1306,
      "awesome.": 1307,
      "amazing.": 1308,
      "heavy": 1309,
      "Hi": 1310,
      "##a,": 1311,
      "##l.": 1312,
      "##ine.": 1313,
      "##icket": 1314,
      "so?": 1315,
      "knew": 1316,
      "Yes!": 1317,
      "what's": 1318,
      "Aw": 1319,
      "pr": 1320,
      "##uck": 1321,
      "##s!": 1322,
      "##erry": 1323,
      "##ene": 1324,
      "lif": 1325,
      "reg": 1326,
      "favorite?": 1327,
      "ago": 1328,
      "##eady": 1329,
      "world": 1330,
      "years.": 1331,
      "##olk": 1332,
      "together": 1333,
      "together.": 1334,
      "pick": 1335,
      "ser": 1336,
      "ter": 1337,
      "##land": 1338,
      "##ans": 1339,
      "is,": 1340,
      "alternative": 1341,
      "##chn": 1342,
      "So,": 1343,
      "mean?": 1344,
      "ph": 1345,
      "##ic.": 1346,
      "##ider": 1347,
      "You're": 1348,
      "##ult": 1349,
      "exact": 1350,
      "gener": 1351,
      "talking": 1352,
      "write": 1353,
      "interesting": 1354,
      "certain": 1355,
      "la": 1356,
      "##mon": 1357,
      "##00": 1358,
      "##ers.": 1359,
      "##enn": 1360,
      "voice.": 1361,
      "everything": 1362,
      "enough": 1363,
      "huge": 1364,
      "idea": 1365,
      "WI": 1366,
      "eas": 1367,
      "elect": 1368,
      "honest": 1369,
      "punk": 1370,
      "##list": 1371,
      "##more": 1372,
      "##RE": 1373,
      "##stand": 1374,
      "kinds": 1375,
      "see.": 1376,
      "prog": 1377,
      "Ste": 1378,
      "techn": 1379,
      "Same": 1380,
      "ent": 1381,
      "sl": 1382,
      "set": 1383,
      "ticket": 1384,
      "##sh": 1385,
      "##vis": 1386,
      "three": 1387,
      "tot": 1388,
      "##ing?": 1389,
      "sometimes": 1390,
      "done": 1391,
      "then.": 1392,
      "favorite.": 1393,
      "Don't": 1394,
      "Most": 1395,
      "sig": 1396,
      "sang": 1397,
      "tun": 1398,
      "##ues": 1399,
      "##ountry": 1400,
      "it!": 1401,
      "once": 1402,
      "supp": 1403,
      "anyone": 1404,
      "playlist": 1405,
      "everyone": 1406,
      "##ible": 1407,
      "trying": 1408,
      "Definitely": 1409,
      "disc": 1410,
      "Yea,": 1411,
      "80's": 1412,
      "head": 1413,
      "vers": 1414,
      "##van": 1415,
      "thats": 1416,
      "##ump": 1417,
      "think.": 1418,
      "good,": 1419,
      "##unch": 1420,
      "sings": 1421,
      "couple": 1422,
      "##ilar": 1423,
      "consider": 1424,
      "Jazz": 1425,
      "boy": 1426,
      "especially": 1427,
      "hate": 1428,
      "ob": 1429,
      "que": 1430,
      "##vent": 1431,
      "##rit": 1432,
      "##track": 1433,
      "##ence": 1434,
      "Hey,": 1435,
      "##pect": 1436,
      "comes": 1437,
      "exc": 1438,
      "classical": 1439,
      "musicians": 1440,
      "understand": 1441,
      "away": 1442,
      "each": 1443,
      "mon": 1444,
      "point": 1445,
      "turn": 1446,
      "##epp": 1447,
      "##ed,": 1448,
      "ins": 1449,
      "##cept": 1450,
      "##gest": 1451,
      "mostly": 1452,
      "Black": 1453,
      "hope": 1454,
      "SONG": 1455,
      "Ag": 1456,
      "folk": 1457,
      "keep": 1458,
      "tra": 1459,
      "##oc": 1460,
      "##mit": 1461,
      "##yn": 1462,
      "##ster": 1463,
      "##ical": 1464,
      "##ork": 1465,
      "one,": 1466,
      "here.": 1467,
      "anymore": 1468,
      "soundtrack": 1469,
      "Thank": 1470,
      "prefer": 1471,
      "feat": 1472,
      "concerts": 1473,
      "wanted": 1474,
      "funny": 1475,
      "videos": 1476,
      "201": 1477,
      "##ronic": 1478,
      "NO": 1479,
      "Pl": 1480,
      "Right": 1481,
      "pian": 1482,
      "sen": 1483,
      "##yon": 1484,
      "##ES": 1485,
      "##AN": 1486,
      "##att": 1487,
      "##each": 1488,
      "like.": 1489,
      "concert.": 1490,
      "##ival": 1491,
      "##ween": 1492,
      "Exact": 1493,
      "Every": 1494,
      "Car": 1495,
      "Eng": 1496,
      "imp": 1497,
      "mom": 1498,
      "sou": 1499,
      "speci": 1500,
      "##lin": 1501,
      "##onna": 1502,
      "young": 1503,
      "do,": 1504,
      "singers": 1505,
      "rock,": 1506,
      "artist.": 1507,
      "##ured": 1508,
      "country.": 1509,
      "There's": 1510,
      "opin": 1511,
      "Probably": 1512,
      "HA": 1513,
      "IT": 1514,
      "Se": 1515,
      "end": 1516,
      "spe": 1517,
      "stand": 1518,
      "album,": 1519,
      "play?": 1520,
      "great,": 1521,
      "year.": 1522,
      "shows": 1523,
      "Chris": 1524,
      "comple": 1525,
      "between": 1526,
      "familiar": 1527,
      "totally": 1528,
      "Country": 1529,
      "mar": 1530,
      "mone": 1531,
      "##-p": 1532,
      "they?": 1533,
      "someone": 1534,
      "called?": 1535,
      "way.": 1536,
      "famous": 1537,
      "True": 1538,
      "surpris": 1539,
      "quest": 1540,
      "Em": 1541,
      "Great": 1542,
      "bunch": 1543,
      "##oon": 1544,
      "##oot": 1545,
      "##row": 1546,
      "##time": 1547,
      "##ING": 1548,
      "##one.": 1549,
      "##icular": 1550,
      "myself": 1551,
      "bands.": 1552,
      "memb": 1553,
      "singer.": 1554,
      "true.": 1555,
      "concert?": 1556,
      "now?": 1557,
      "best.": 1558,
      "interesting.": 1559,
      "indie": 1560,
      "Boy": 1561,
      "Would": 1562,
      "bro": 1563,
      "dra": 1564,
      "##iq": 1565,
      "##ves": 1566,
      "##.\"": 1567,
      "##ease": 1568,
      "##hed": 1569,
      "##ise": 1570,
      "them,": 1571,
      "took": 1572,
      "Hey": 1573,
      "guess.": 1574,
      "artist?": 1575,
      "compos": 1576,
      "lately?": 1577,
      "Nick": 1578,
      "Tw": 1579,
      "##ey": 1580,
      "##ele": 1581,
      "##les.": 1582,
      "##body": 1583,
      "##--": 1584,
      "ask": 1585,
      "##allic": 1586,
      "##uring": 1587,
      "him?": 1588,
      "right,": 1589,
      "##ift": 1590,
      "Beyon": 1591,
      "Why?": 1592,
      "particular": 1593,
      "200": 1594,
      "Sure,": 1595,
      "channe": 1596,
      "Jackson": 1597,
      "Metallic": 1598,
      "month": 1599,
      "members": 1600,
      "\"I": 1601,
      "At": 1602,
      "Hell": 1603,
      "Hmm": 1604,
      "far": 1605,
      "##iou": 1606,
      "##ox": 1607,
      "##wh": 1608,
      "##mag": 1609,
      "haha": 1610,
      "on.": 1611,
      "really?": 1612,
      "really,": 1613,
      "without": 1614,
      "##ction": 1615,
      "did.": 1616,
      "super": 1617,
      "YouT": 1618,
      "making": 1619,
      "though,": 1620,
      "##ired": 1621,
      "happened": 1622,
      "##aught": 1623,
      "WILL": 1624,
      "\"B": 1625,
      "Yup": 1626,
      "cur": 1627,
      "##ier": 1628,
      "##dd": 1629,
      "##kend": 1630,
      "##irt": 1631,
      "##ent.": 1632,
      "Thats": 1633,
      "all.": 1634,
      "out?": 1635,
      "stud": 1636,
      "##ation.": 1637,
      "couldn't": 1638,
      "day.": 1639,
      "talented.": 1640,
      "catchy": 1641,
      "##EAR": 1642,
      "crazy": 1643,
      "\"The": 1644,
      "90's": 1645,
      "Act": 1646,
      "IS": 1647,
      "Or": 1648,
      "Pop": 1649,
      "TO": 1650,
      "move": 1651,
      "res": 1652,
      "sum": 1653,
      "tit": 1654,
      "##ning": 1655,
      "##ny.": 1656,
      "##ens": 1657,
      "inf": 1658,
      "soon": 1659,
      "able": 1660,
      "seem": 1661,
      "mean,": 1662,
      "Christ": 1663,
      "live?": 1664,
      "hits": 1665,
      "ON": 1666,
      "Pink": 1667,
      "four": 1668,
      "tast": 1669,
      "##ily": 1670,
      "##rie": 1671,
      "##S.": 1672,
      "##ward": 1673,
      "##\",": 1674,
      "##jor": 1675,
      "##rent": 1676,
      "one?": 1677,
      "great!": 1678,
      "major": 1679,
      "##ive.": 1680,
      "gets": 1681,
      "felt": 1682,
      "cho": 1683,
      "yeah.": 1684,
      "show.": 1685,
      "perfect": 1686,
      "Ok,": 1687,
      "radio.": 1688,
      "looking": 1689,
      "better.": 1690,
      "break": 1691,
      "agree,": 1692,
      "Awesome": 1693,
      "Int": 1694,
      "WH": 1695,
      "jam": 1696,
      "win": 1697,
      "##rick": 1698,
      "##less": 1699,
      "##IS": 1700,
      "##0s.": 1701,
      "##ME": 1702,
      "##nds": 1703,
      "##ings": 1704,
      "##edd": 1705,
      "What?": 1706,
      "fast": 1707,
      "##ract": 1708,
      "single": 1709,
      "pop.": 1710,
      "stuff?": 1711,
      "mean.": 1712,
      "exper": 1713,
      "##able": 1714,
      "award": 1715,
      "fun.": 1716,
      "funny.": 1717,
      "Anything": 1718,
      "open": 1719,
      "##endrick": 1720,
      "small": 1721,
      "electronic": 1722,
      "version": 1723,
      "full": 1724,
      "reason": 1725,
      "tough": 1726,
      "##ie.": 1727,
      "##cif": 1728,
      "##lor": 1729,
      "##mith": 1730,
      "##head": 1731,
      "town": 1732,
      "##itney": 1733,
      "##alk": 1734,
      "##though": 1735,
      "wouldn't": 1736,
      "go.": 1737,
      "##urt": 1738,
      "word": 1739,
      "##oss": 1740,
      "##othing": 1741,
      "well,": 1742,
      "##age.": 1743,
      "blue": 1744,
      "excit": 1745,
      "10": 1746,
      "Kendrick": 1747,
      "min": 1748,
      "roll": 1749,
      "var": 1750,
      "##m,": 1751,
      "##ount": 1752,
      "##ather": 1753,
      "##ones": 1754,
      "##uture": 1755,
      "##als": 1756,
      "mod": 1757,
      "fest": 1758,
      "##ible.": 1759,
      "##ance.": 1760,
      "Justin": 1761,
      "uniq": 1762,
      "Yep.": 1763,
      "times": 1764,
      "either.": 1765,
      "already": 1766,
      "similar": 1767,
      "Ind": 1768,
      "Que": 1769,
      "To": 1770,
      "found": 1771,
      "jo": 1772,
      "mood": 1773,
      "pass": 1774,
      "##vol": 1775,
      "##ouse": 1776,
      "##otif": 1777,
      "hearing": 1778,
      "absolute": 1779,
      "not.": 1780,
      "produc": 1781,
      "cool,": 1782,
      "actually.": 1783,
      "typ": 1784,
      "written": 1785,
      "Actually": 1786,
      "Roll": 1787,
      "With": 1788,
      "mess": 1789,
      "yes,": 1790,
      "##cr": 1791,
      "##a?": 1792,
      "##my": 1793,
      "##hing": 1794,
      "##ina": 1795,
      "##ence.": 1796,
      "##ange": 1797,
      "##anna": 1798,
      "##irvan": 1799,
      "##illi": 1800,
      "lots": 1801,
      "time,": 1802,
      "more.": 1803,
      "exp": 1804,
      "name.": 1805,
      "Yep,": 1806,
      "Floy": 1807,
      "terr": 1808,
      "labe": 1809,
      "Da": 1810,
      "El": 1811,
      "Night": 1812,
      "Tay": 1813,
      "per": 1814,
      "##illy": 1815,
      "##ile.": 1816,
      "##vie": 1817,
      "##lu": 1818,
      "##wood": 1819,
      "##ject": 1820,
      "##oud": 1821,
      "##rew": 1822,
      "##en.": 1823,
      "often": 1824,
      "##owing": 1825,
      "beg": 1826,
      "##arb": 1827,
      "##earn": 1828,
      "not?": 1829,
      "time?": 1830,
      "gotta": 1831,
      "##upac": 1832,
      "weekend": 1833,
      "remind": 1834,
      "Absolute": 1835,
      "progressive": 1836,
      "Taylor": 1837,
      "Go": 1838,
      "Hop": 1839,
      "Le": 1840,
      "Ph": 1841,
      "Perry": 1842,
      "Su": 1843,
      "aut": 1844,
      "bought": 1845,
      "cas": 1846,
      "car": 1847,
      "des": 1848,
      "##aty": 1849,
      "##ren": 1850,
      "##an.": 1851,
      "place": 1852,
      "greatest": 1853,
      "newer": 1854,
      "Haha": 1855,
      "sever": 1856,
      "sure,": 1857,
      "THAT": 1858,
      "latest": 1859,
      "style.": 1860,
      "guys": 1861,
      "THEY": 1862,
      "##ugg": 1863,
      "early": 1864,
      "incred": 1865,
      "\"A": 1866,
      "\"W": 1867,
      "cd": 1868,
      "pie": 1869,
      "##gy": 1870,
      "##got": 1871,
      "##!!": 1872,
      "##ons": 1873,
      "##orry": 1874,
      "that!": 1875,
      "was.": 1876,
      "##enty": 1877,
      "songs,": 1878,
      "orche": 1879,
      "much,": 1880,
      "worth": 1881,
      "##iana": 1882,
      "Isn't": 1883,
      "Really,": 1884,
      "talented": 1885,
      "##ize": 1886,
      "Cool,": 1887,
      "##lton": 1888,
      "specif": 1889,
      "complete": 1890,
      "Emine": 1891,
      "Beyonce": 1892,
      "current": 1893,
      "\"H": 1894,
      "Che": 1895,
      "LO": 1896,
      "May": 1897,
      "Nirvan": 1898,
      "during": 1899,
      "night": 1900,
      "run": 1901,
      "read": 1902,
      "##aw": 1903,
      "##hy": 1904,
      "##reet": 1905,
      "##ict": 1906,
      "##ition": 1907,
      "know?": 1908,
      "mel": 1909,
      "##ure.": 1910,
      "##erful": 1911,
      "Didn't": 1912,
      "fan.": 1913,
      "work.": 1914,
      "favorites.": 1915,
      "##ched": 1916,
      "familiar.": 1917,
      "money": 1918,
      "festival": 1919,
      "several": 1920,
      "Bon": 1921,
      "Dead": 1922,
      "Ge": 1923,
      "Red": 1924,
      "Us": 1925,
      "du": 1926,
      "ed": 1927,
      "em": 1928,
      "##ial": 1929,
      "##TH": 1930,
      "##atur": 1931,
      "on?": 1932,
      "be.": 1933,
      "sound.": 1934,
      "sounded": 1935,
      "goes": 1936,
      "seeing": 1937,
      "death": 1938,
      "##amp": 1939,
      "##weet": 1940,
      "today.": 1941,
      "course,": 1942,
      "Cool.": 1943,
      "okay.": 1944,
      "Prince": 1945,
      "exactly": 1946,
      "suppos": 1947,
      "special": 1948,
      "Ah": 1949,
      "Back": 1950,
      "DO": 1951,
      "Mon": 1952,
      "pow": 1953,
      "won": 1954,
      "##ye": 1955,
      "##IC": 1956,
      "##en,": 1957,
      "alot": 1958,
      "##ears": 1959,
      "You?": 1960,
      "anyway": 1961,
      "child": 1962,
      "man,": 1963,
      "saying": 1964,
      "yeah?": 1965,
      "thank": 1966,
      "movies": 1967,
      "yet.": 1968,
      "takes": 1969,
      "##stream": 1970,
      "entire": 1971,
      "piano": 1972,
      "Am": 1973,
      "HEAR": 1974,
      "Katy": 1975,
      "acc": 1976,
      "deep": 1977,
      "era": 1978,
      "kill": 1979,
      "less": 1980,
      "learn": 1981,
      "num": 1982,
      "post": 1983,
      "##ibe": 1984,
      "##right": 1985,
      "##ae": 1986,
      "##ax": 1987,
      "##ating": 1988,
      "told": 1989,
      "ann": 1990,
      "forgot": 1991,
      "know!": 1992,
      "Your": 1993,
      "fem": 1994,
      "artists.": 1995,
      "then?": 1996,
      "favorites": 1997,
      "scen": 1998,
      "original": 1999,
      "slow": 2000,
      "HAVE": 2001,
      "channel": 2002,
      "Mc": 2003,
      "Mer": 2004,
      "Radio": 2005,
      "bor": 2006,
      "wedd": 2007,
      "##ius": 2008,
      "##iet": 2009,
      "##t.": 2010,
      "##the": 2011,
      "##what": 2012,
      "##ggest": 2013,
      "##2.": 2014,
      "##inet": 2015,
      "##vel": 2016,
      "##it.": 2017,
      "hand": 2018,
      "along": 2019,
      "they've": 2020,
      "##ett": 2021,
      "thinking": 2022,
      "##illion": 2023,
      "band,": 2024,
      "suggest": 2025,
      "stuff,": 2026,
      "Who's": 2027,
      "ext": 2028,
      "trans": 2029,
      "Star": 2030,
      "people.": 2031,
      "live.": 2032,
      "wrong": 2033,
      "compare": 2034,
      "recently": 2035,
      "kidd": 2036,
      "Beatles.": 2037,
      "true,": 2038,
      "change": 2039,
      "Frank": 2040,
      "James": 2041,
      "Swift": 2042,
      "Agre": 2043,
      "Yup,": 2044,
      "ONE": 2045,
      "Elvis": 2046,
      "Big": 2047,
      "Com": 2048,
      "Jim": 2049,
      "Lam": 2050,
      "WA": 2051,
      "Wait": 2052,
      "bus": 2053,
      "fin": 2054,
      "gra": 2055,
      "gone": 2056,
      "lost": 2057,
      "ven": 2058,
      "wer": 2059,
      "##lish": 2060,
      "##\"?": 2061,
      "##mor": 2062,
      "##inc": 2063,
      "##ane": 2064,
      "##ity.": 2065,
      "##ote": 2066,
      "##ention": 2067,
      "sub": 2068,
      "shame": 2069,
      "perfor": 2070,
      "rap.": 2071,
      "mainstream": 2072,
      "changed": 2073,
      "##magine": 2074,
      "completely": 2075,
      "female": 2076,
      "Bo": 2077,
      "Got": 2078,
      "Way": 2079,
      "fore": 2080,
      "job": 2081,
      "line": 2082,
      "##ual": 2083,
      "##iver": 2084,
      "##vid": 2085,
      "##aid": 2086,
      "##h.": 2087,
      "##yl": 2088,
      "##ates": 2089,
      "you,": 2090,
      "##ooked": 2091,
      "##arth": 2092,
      "do!": 2093,
      "think?": 2094,
      "nothing": 2095,
      "suck": 2096,
      "##urch": 2097,
      "others.": 2098,
      "trump": 2099,
      "##cial": 2100,
      "group.": 2101,
      "##ude": 2102,
      "happy": 2103,
      "add": 2104,
      "either": 2105,
      "local": 2106,
      "opinion": 2107,
      "YouTube": 2108,
      "Interest": 2109,
      "label": 2110,
      "trumpet": 2111,
      "CAN": 2112,
      "Day": 2113,
      "Gl": 2114,
      "Led": 2115,
      "Tom": 2116,
      "gave": 2117,
      "mid": 2118,
      "unt": 2119,
      "##nb": 2120,
      "##vious": 2121,
      "##tle": 2122,
      "##writ": 2123,
      "##band": 2124,
      "##otion": 2125,
      "aren't": 2126,
      "fact": 2127,
      "up?": 2128,
      "show?": 2129,
      "days": 2130,
      "Alright": 2131,
      "why?": 2132,
      "Sometimes": 2133,
      "lyrics.": 2134,
      "True.": 2135,
      "##ube.": 2136,
      "drummer": 2137,
      "##ground": 2138,
      "Adele": 2139,
      "Hi.": 2140,
      "sign": 2141,
      "anymore.": 2142,
      "surprised": 2143,
      "influ": 2144,
      "bluegr": 2145,
      "begin": 2146,
      "supposed": 2147,
      "number": 2148,
      "80s": 2149,
      "Co": 2150,
      "Jap": 2151,
      "Mine": 2152,
      "Song": 2153,
      "Tim": 2154,
      "et": 2155,
      "sit": 2156,
      "##ov": 2157,
      "##press": 2158,
      "thing.": 2159,
      "##ase": 2160,
      "so,": 2161,
      "me,": 2162,
      "kinda": 2163,
      "##gend": 2164,
      "rock?": 2165,
      "now,": 2166,
      "different.": 2167,
      "group?": 2168,
      "genre.": 2169,
      "Anyway": 2170,
      "instrumental": 2171,
      "kids": 2172,
      "sad.": 2173,
      "##play": 2174,
      "Ariana": 2175,
      "mainly": 2176,
      "OK,": 2177,
      "##where": 2178,
      "WHAT": 2179,
      "Floyd": 2180,
      "wedding": 2181,
      "As": 2182,
      "Band": 2183,
      "GO": 2184,
      "Hip": 2185,
      "Nothing": 2186,
      "Par": 2187,
      "Sk": 2188,
      "Tell": 2189,
      "att": 2190,
      "dig": 2191,
      "foll": 2192,
      "oth": 2193,
      "sk": 2194,
      "wom": 2195,
      "##dy": 2196,
      "##oub": 2197,
      "##atin": 2198,
      "to,": 2199,
      "##hel": 2200,
      "##ots": 2201,
      "hair": 2202,
      "does.": 2203,
      "stor": 2204,
      "##ady": 2205,
      "##ally.": 2206,
      "genres": 2207,
      "back.": 2208,
      "radio?": 2209,
      "metal.": 2210,
      "Let's": 2211,
      "insp": 2212,
      "English": 2213,
      "##hyth": 2214,
      "performed": 2215,
      "until": 2216,
      "\"L": 2217,
      "\"C": 2218,
      "\"D": 2219,
      "By": 2220,
      "Bie": 2221,
      "Bach": 2222,
      "Even": 2223,
      "Pre": 2224,
      "Ser": 2225,
      "TV": 2226,
      "Tool": 2227,
      "Un": 2228,
      "Under": 2229,
      "Wor": 2230,
      "daught": 2231,
      "gl": 2232,
      "home": 2233,
      "pract": 2234,
      "rather": 2235,
      "##su": 2236,
      "##ss": 2237,
      "##ipp": 2238,
      "##core": 2239,
      "##cause": 2240,
      "##vo": 2241,
      "##eg": 2242,
      "##air": 2243,
      "##ger": 2244,
      "##gie": 2245,
      "##ste": 2246,
      "of.": 2247,
      "##ors": 2248,
      "##orge": 2249,
      "##uss": 2250,
      "##ush": 2251,
      "do?": 2252,
      "stop": 2253,
      "story": 2254,
      "##alif": 2255,
      "are.": 2256,
      "about.": 2257,
      "them!": 2258,
      "bands?": 2259,
      "Doing": 2260,
      "depress": 2261,
      "##beat": 2262,
      "died": 2263,
      "funk": 2264,
      "ener": 2265,
      "groups": 2266,
      "today?": 2267,
      "##ogra": 2268,
      "times.": 2269,
      "life.": 2270,
      "question": 2271,
      "Christian": 2272,
      "unique": 2273,
      "melod": 2274,
      "Bow": 2275,
      "Dr": 2276,
      "Gr": 2277,
      "Very": 2278,
      "Were": 2279,
      "Will": 2280,
      "YES": 2281,
      "cry": 2282,
      "ele": 2283,
      "future": 2284,
      "hour": 2285,
      "sell": 2286,
      "##dle": 2287,
      "##led": 2288,
      "##bin": 2289,
      "##KE": 2290,
      "##enc": 2291,
      "you'll": 2292,
      "##oose": 2293,
      "##ly!": 2294,
      "heard.": 2295,
      "##ers?": 2296,
      "depe": 2297,
      "expl": 2298,
      "concerts.": 2299,
      "##abor": 2300,
      "gotten": 2301,
      "days.": 2302,
      "singer,": 2303,
      "##iving": 2304,
      "lately.": 2305,
      "##mph": 2306,
      "199": 2307,
      "again?": 2308,
      "featured": 2309,
      "Exactly.": 2310,
      "Nicki": 2311,
      "hahaha": 2312,
      "words": 2313,
      "modern": 2314,
      "##otify": 2315,
      "specific": 2316,
      "AN": 2317,
      "BA": 2318,
      "Cold": 2319,
      "Get": 2320,
      "Har": 2321,
      "Hear": 2322,
      "Ke": 2323,
      "Rap": 2324,
      "Tupac": 2325,
      "dead": 2326,
      "hist": 2327,
      "##side": 2328,
      "##c.": 2329,
      "##ail": 2330,
      "##IN": 2331,
      "yout": 2332,
      "in.": 2333,
      "soon.": 2334,
      "##ley": 2335,
      "stay": 2336,
      "##inkin": 2337,
      "rest": 2338,
      "##uno": 2339,
      "yourself": 2340,
      "stuck": 2341,
      "##ers,": 2342,
      "##ures": 2343,
      "produ": 2344,
      "proble": 2345,
      "uses": 2346,
      "voic": 2347,
      "Because": 2348,
      "became": 2349,
      "wrote": 2350,
      "harmon": 2351,
      "singer?": 2352,
      "##arent": 2353,
      "hits.": 2354,
      "Also": 2355,
      "talent.": 2356,
      "guitar.": 2357,
      "enjoyed": 2358,
      "scene": 2359,
      "beats": 2360,
      "##ments": 2361,
      "again.": 2362,
      "basically": 2363,
      "decad": 2364,
      "dancing": 2365,
      "Only": 2366,
      "serious": 2367,
      "Mostly": 2368,
      "excited": 2369,
      "LOVE": 2370,
      "emotion": 2371,
      "Bieber": 2372,
      "##aliforn": 2373,
      "Bob": 2374,
      "Dis": 2375,
      "Ed": 2376,
      "Mad": 2377,
      "Rob": 2378,
      "Smith": 2379,
      "Te": 2380,
      "Van": 2381,
      "ac": 2382,
      "fill": 2383,
      "fig": 2384,
      "mat": 2385,
      "park": 2386,
      "##ness": 2387,
      "##vin": 2388,
      "##ped": 2389,
      "##ott": 2390,
      "having": 2391,
      "##leep": 2392,
      "while.": 2393,
      "listen.": 2394,
      "albums?": 2395,
      "did,": 2396,
      "succ": 2397,
      "##....": 2398,
      "##ive,": 2399,
      "Then": 2400,
      "##astic": 2401,
      "##pel": 2402,
      "choose": 2403,
      "close": 2404,
      "##ies?": 2405,
      "named": 2406,
      "relax": 2407,
      "Brit": 2408,
      "popular.": 2409,
      "##mmy": 2410,
      "instruments": 2411,
      "covers": 2412,
      "Another": 2413,
      "recommendation": 2414,
      "collabor": 2415,
      "missed": 2416,
      "wow,": 2417,
      "techno": 2418,
      "tickets": 2419,
      "Carrie": 2420,
      "Hello.": 2421,
      "Nirvana": 2422,
      "bluegrass": 2423,
      "Bill": 2424,
      "Girl": 2425,
      "Hot": 2426,
      "Look": 2427,
      "Lord": 2428,
      "MU": 2429,
      "Right.": 2430,
      "War": 2431,
      "ble": 2432,
      "book": 2433,
      "cor": 2434,
      "dist": 2435,
      "fire": 2436,
      "ninet": 2437,
      "odd": 2438,
      "roo": 2439,
      "tou": 2440,
      "##uly": 2441,
      "##sw": 2442,
      "##ium": 2443,
      "##gae": 2444,
      "##ID": 2445,
      "##'m": 2446,
      "##zz": 2447,
      "##OW": 2448,
      "##ated.": 2449,
      "##on,": 2450,
      "##eaking": 2451,
      "##reen": 2452,
      "##stra": 2453,
      "##street": 2454,
      "you've": 2455,
      "in?": 2456,
      "song!": 2457,
      "form": 2458,
      "for?": 2459,
      "something.": 2460,
      "too?": 2461,
      "out,": 2462,
      "outside": 2463,
      "##ists": 2464,
      "singles": 2465,
      "seemed": 2466,
      "##ample": 2467,
      "##ose.": 2468,
      "will.": 2469,
      "though?": 2470,
      "country?": 2471,
      "country,": 2472,
      "wants": 2473,
      "genius": 2474,
      "feels": 2475,
      "awesome,": 2476,
      "tour?": 2477,
      "Never": 2478,
      "hop.": 2479,
      "recently.": 2480,
      "originally": 2481,
      "legend": 2482,
      "Adam": 2483,
      "Grand": 2484,
      "signat": 2485,
      "tune": 2486,
      "soul": 2487,
      "True,": 2488,
      "myself.": 2489,
      "Metallica": 2490,
      "##ious.": 2491,
      "variet": 2492,
      "Indie": 2493,
      "David": 2494,
      "reminds": 2495,
      "George": 2496,
      "Serious": 2497,
      "##alifornia": 2498,
      "\"R": 2499,
      "70's": 2500,
      "Could": 2501,
      "Dra": 2502,
      "Fire": 2503,
      "Gen": 2504,
      "Nop": 2505,
      "Pet": 2506,
      "Run": 2507,
      "Rain": 2508,
      "U2": 2509,
      "age": 2510,
      "co": 2511,
      "event": 2512,
      "gonna": 2513,
      "hy": 2514,
      "hus": 2515,
      "jud": 2516,
      "oper": 2517,
      "rich": 2518,
      "teach": 2519,
      "won't": 2520,
      "##ully": 2521,
      "##ty": 2522,
      "##light": 2523,
      "##kn": 2524,
      "##gan": 2525,
      "##mer.": 2526,
      "##EN": 2527,
      "##bo": 2528,
      "##but": 2529,
      "##-h": 2530,
      "##'T": 2531,
      "##icked": 2532,
      "##ess,": 2533,
      "music!": 2534,
      "sol": 2535,
      "##ished": 2536,
      "although": 2537,
      "have.": 2538,
      "knows": 2539,
      "notic": 2540,
      "me?": 2541,
      "cant": 2542,
      "##ield": 2543,
      "upbeat": 2544,
      "pop,": 2545,
      "commer": 2546,
      "old.": 2547,
      "man.": 2548,
      "##ored": 2549,
      "except": 2550,
      "##ife": 2551,
      "way,": 2552,
      "release": 2553,
      "before.": 2554,
      "jazz.": 2555,
      "drop": 2556,
      "catchy.": 2557,
      "Remember": 2558,
      "Grammy": 2559,
      "##ship": 2560,
      "broke": 2561,
      "choice": 2562,
      "types": 2563,
      "Rolling": 2564,
      "incredible": 2565,
      "Amaz": 2566,
      "annoy": 2567,
      "husband": 2568,
      "App": 2569,
      "AND": 2570,
      "Dan": 2571,
      "Dur": 2572,
      "Gag": 2573,
      "Kn": 2574,
      "More": 2575,
      "Pil": 2576,
      "Sc": 2577,
      "SH": 2578,
      "Satur": 2579,
      "bass": 2580,
      "cr": 2581,
      "fit": 2582,
      "hor": 2583,
      "later": 2584,
      "loud": 2585,
      "mine": 2586,
      "pay": 2587,
      "par": 2588,
      "past": 2589,
      "poss": 2590,
      "rhyth": 2591,
      "sw": 2592,
      "##SIC": 2593,
      "##yr": 2594,
      "##ET": 2595,
      "##br": 2596,
      "##be.": 2597,
      "##OR": 2598,
      "##in,": 2599,
      "theme": 2600,
      "##ont": 2601,
      "##key": 2602,
      "##as.": 2603,
      "onl": 2604,
      "##irc": 2605,
      "##irth": 2606,
      "##ird.": 2607,
      "star": 2608,
      "##ument": 2609,
      "Yeah?": 2610,
      "he?": 2611,
      "whatever": 2612,
      "##iment": 2613,
      "##ry.": 2614,
      "him,": 2615,
      "##ately": 2616,
      "chance": 2617,
      "there?": 2618,
      "diver": 2619,
      "background": 2620,
      "awh": 2621,
      "way!": 2622,
      "then,": 2623,
      "fans": 2624,
      "##ies,": 2625,
      "West": 2626,
      "feeling": 2627,
      "haven't.": 2628,
      "Okay.": 2629,
      "tend": 2630,
      "amazing!": 2631,
      "Good.": 2632,
      "let's": 2633,
      "earl": 2634,
      "Man,": 2635,
      "decade": 2636,
      "idea.": 2637,
      "sense.": 2638,
      "march": 2639,
      "question.": 2640,
      "experi": 2641,
      "Queen": 2642,
      "Actually,": 2643,
      "orchestra": 2644,
      "powerful": 2645,
      "WAS": 2646,
      "Wait,": 2647,
      "Interesting.": 2648,
      "Alright,": 2649,
      "Japan": 2650,
      "Pretty": 2651,
      "daughter": 2652,
      "Coldplay": 2653,
      "MUSIC": 2654,
      "Saturday": 2655,
      "40": 2656,
      "After": 2657,
      "Cr": 2658,
      "Cash": 2659,
      "Eur": 2660,
      "Has": 2661,
      "Jay": 2662,
      "Latin": 2663,
      "Mil": 2664,
      "Qu": 2665,
      "Sou": 2666,
      "Sweet": 2667,
      "Take": 2668,
      "US": 2669,
      "Wee": 2670,
      "Zepp": 2671,
      "doub": 2672,
      "eight": 2673,
      "fant": 2674,
      "free": 2675,
      "million": 2676,
      "near": 2677,
      "pol": 2678,
      "sn": 2679,
      "##oad": 2680,
      "##work": 2681,
      "##ken": 2682,
      "##oust": 2683,
      "##er's": 2684,
      "##on?": 2685,
      "like,": 2686,
      "half": 2687,
      "songwrit": 2688,
      "##le?": 2689,
      "##eth": 2690,
      "##etro": 2691,
      "think,": 2692,
      "forward": 2693,
      "sometime": 2694,
      "didnt": 2695,
      "lot,": 2696,
      "intern": 2697,
      "working": 2698,
      "year?": 2699,
      "project": 2700,
      "classic.": 2701,
      "##ish.": 2702,
      "things.": 2703,
      "compl": 2704,
      "interested": 2705,
      "videos.": 2706,
      "puts": 2707,
      "else?": 2708,
      "admit": 2709,
      "strange": 2710,
      "indust": 2711,
      "writes": 2712,
      "Wasn't": 2713,
      "girls": 2714,
      "crazy.": 2715,
      "incl": 2716,
      "Definitely.": 2717,
      "obvious": 2718,
      "drake": 2719,
      "Check": 2720,
      "HEARD": 2721,
      "Madonna": 2722,
      "##board": 2723,
      "Europ": 2724,
      "\"F": 2725,
      "\"M": 2726,
      "Ah,": 2727,
      "DJ": 2728,
      "Dark": 2729,
      "Fall": 2730,
      "Feel": 2731,
      "Jour": 2732,
      "Out": 2733,
      "Old": 2734,
      "Pepp": 2735,
      "cent": 2736,
      "cop": 2737,
      "house": 2738,
      "imagine": 2739,
      "lar": 2740,
      "mention": 2741,
      "rnb": 2742,
      "son": 2743,
      "##ient": 2744,
      "##h?": 2745,
      "##IR": 2746,
      "##?!": 2747,
      "##fort": 2748,
      "##AME": 2749,
      "##OP": 2750,
      "##at.": 2751,
      "##reci": 2752,
      "##ense": 2753,
      "likes": 2754,
      "##ory.": 2755,
      "##itch": 2756,
      "##ed!": 2757,
      "ones.": 2758,
      "fair": 2759,
      "sometim": 2760,
      "ref": 2761,
      "with.": 2762,
      "meet": 2763,
      "yours?": 2764,
      "area": 2765,
      "who's": 2766,
      "chart": 2767,
      "artists?": 2768,
      "expect": 2769,
      "trib": 2770,
      "##ains": 2771,
      "prof": 2772,
      "everything.": 2773,
      "long.": 2774,
      "We're": 2775,
      "awesome!": 2776,
      "##ace.": 2777,
      "##day.": 2778,
      "bring": 2779,
      "blues": 2780,
      "else.": 2781,
      "drug": 2782,
      "playing?": 2783,
      "speak": 2784,
      "beat.": 2785,
      "disapp": 2786,
      "Can't": 2787,
      "Classic": 2788,
      "stations": 2789,
      "personal": 2790,
      "friends": 2791,
      "vocals": 2792,
      "life": 2793,
      "Same.": 2794,
      "considered": 2795,
      "sense": 2796,
      "moment": 2797,
      "opinion.": 2798,
      "taste": 2799,
      "experiment": 2800,
      "produced": 2801,
      "Anyway,": 2802,
      "Underwood": 2803,
      "World": 2804,
      "Duran": 2805,
      "earlier": 2806,
      "Ale": 2807,
      "Con": 2808,
      "HE": 2809,
      "Jon": 2810,
      "Lit": 2811,
      "Mile": 2812,
      "Nice": 2813,
      "Po": 2814,
      "Sar": 2815,
      "See": 2816,
      "Sort": 2817,
      "dad": 2818,
      "gi": 2819,
      "hot": 2820,
      "nam": 2821,
      "season": 2822,
      "vin": 2823,
      "##i.": 2824,
      "##ege": 2825,
      "##TV": 2826,
      "##rect": 2827,
      "##en't": 2828,
      "##ania": 2829,
      "##ows": 2830,
      "##ower": 2831,
      "once.": 2832,
      "sold": 2833,
      "##th.": 2834,
      "fall": 2835,
      "not,": 2836,
      "reme": 2837,
      "one!": 2838,
      "Whitney": 2839,
      "plan": 2840,
      "theirs": 2841,
      "##unge": 2842,
      "They've": 2843,
      "sing?": 2844,
      "new.": 2845,
      "inter": 2846,
      "who?": 2847,
      "##andor": 2848,
      "class": 2849,
      "using": 2850,
      "no,": 2851,
      "shows.": 2852,
      "genre?": 2853,
      "Bruno": 2854,
      "family": 2855,
      "performing": 2856,
      "styles": 2857,
      "teen": 2858,
      "metal,": 2859,
      "rapper": 2860,
      "weeks": 2861,
      "collect": 2862,
      "ago,": 2863,
      "easy": 2864,
      "Steve": 2865,
      "minut": 2866,
      "join": 2867,
      "absolutely": 2868,
      "##view": 2869,
      "Eminem": 2870,
      "weren't": 2871,
      "follow": 2872,
      "practice": 2873,
      "Robert": 2874,
      "Miley": 2875,
      "...": 2876,
      "90s": 2877,
      "Bra": 2878,
      "California": 2879,
      "Give": 2880,
      "God": 2881,
      "Ho": 2882,
      "Ice": 2883,
      "Kor": 2884,
      "LI": 2885,
      "Live": 2886,
      "Lady": 2887,
      "Name": 2888,
      "Pa": 2889,
      "Pandor": 2890,
      "Sl": 2891,
      "Tot": 2892,
      "Up": 2893,
      "Want": 2894,
      "cost": 2895,
      "cult": 2896,
      "dud": 2897,
      "grew": 2898,
      "hang": 2899,
      "looked": 2900,
      "tired": 2901,
      "yea": 2902,
      "##uke": 2903,
      "##oke": 2904,
      "##ring": 2905,
      "##to": 2906,
      "##ted": 2907,
      "##pr": 2908,
      "##gle": 2909,
      "##gard": 2910,
      "##hood": 2911,
      "##hap": 2912,
      "##,I": 2913,
      "##fully": 2914,
      "##AR": 2915,
      "##ouble": 2916,
      "##ative": 2917,
      "##eros": 2918,
      "light": 2919,
      "##ese": 2920,
      "##es!": 2921,
      "##esid": 2922,
      "##'s.": 2923,
      "is?": 2924,
      "soft": 2925,
      "state": 2926,
      "##omb": 2927,
      "answ": 2928,
      "heart": 2929,
      "somewhat": 2930,
      "her?": 2931,
      "front": 2932,
      "anything.": 2933,
      "go?": 2934,
      "guest": 2935,
      "count": 2936,
      "Though": 2937,
      "sex": 2938,
      "seat": 2939,
      "much?": 2940,
      "##ession": 2941,
      "char": 2942,
      "doesnt": 2943,
      "combin": 2944,
      "worked": 2945,
      "##ations": 2946,
      "Still": 2947,
      "video.": 2948,
      "same.": 2949,
      "comput": 2950,
      "rap,": 2951,
      "Brian": 2952,
      "around?": 2953,
      "Blake": 2954,
      "Blues": 2955,
      "Wow.": 2956,
      "Wow!": 2957,
      "##here.": 2958,
      "instruments.": 2959,
      "realize": 2960,
      "Shes": 2961,
      "Canad": 2962,
      "appreci": 2963,
      "based": 2964,
      "recommend?": 2965,
      "loves": 2966,
      "##ful.": 2967,
      "watching": 2968,
      "reggae": 2969,
      "seriou": 2970,
      "Stevie": 2971,
      "Right,": 2972,
      "##-pop": 2973,
      "month.": 2974,
      "Super": 2975,
      "descr": 2976,
      "Usually": 2977,
      "scene.": 2978,
      "Merc": 2979,
      "forever": 2980,
      "depends": 2981,
      "Heart": 2982,
      "success": 2983,
      "horr": 2984,
      "large": 2985,
      "LIKE": 2986,
      "\"P": 2987,
      "Cyr": 2988,
      "Dave": 2989,
      "Elton": 2990,
      "Hal": 2991,
      "Honest": 2992,
      "HIS": 2993,
      "I.": 2994,
      "King": 2995,
      "Kan": 2996,
      "Mina": 2997,
      "MTV": 2998,
      "Sim": 2999,
      "Vo": 3000,
      "bored": 3001,
      "ic": 3002,
      "mea": 3003,
      "wide": 3004,
      "##son.": 3005,
      "##i,": 3006,
      "##cl": 3007,
      "##riend": 3008,
      "##aa": 3009,
      "##lake": 3010,
      "##mn": 3011,
      "##hind": 3012,
      "##N'T": 3013,
      "##CK": 3014,
      "##onic": 3015,
      "##st.": 3016,
      "##ved": 3017,
      "##hem": 3018,
      "##ot.": 3019,
      "behind": 3020,
      "have?": 3021,
      "forget": 3022,
      "##oph": 3023,
      "about?": 3024,
      "sung": 3025,
      "memor": 3026,
      "##une": 3027,
      "arg": 3028,
      "this?": 3029,
      "self": 3030,
      "defin": 3031,
      "Sheer": 3032,
      "##berlake": 3033,
      "growing": 3034,
      "cool!": 3035,
      "Ston": 3036,
      "##ipt": 3037,
      "fan,": 3038,
      "party": 3039,
      "Brown": 3040,
      "THEM": 3041,
      "##load": 3042,
      "hip-h": 3043,
      "Johnny": 3044,
      "recording": 3045,
      "Maroon": 3046,
      "197": 3047,
      "tracks": 3048,
      "alright": 3049,
      "college": 3050,
      "regular": 3051,
      "obs": 3052,
      "Thanks": 3053,
      "2017": 3054,
      "Boys": 3055,
      "movement": 3056,
      "summer": 3057,
      "Backstreet": 3058,
      "middle": 3059,
      "inspired": 3060,
      "youtube": 3061,
      "internet": 3062,
      "Cyrus": 3063,
      "Minaj": 3064,
      "meant": 3065,
      "hip-hop": 3066,
      "\"N": 3067,
      "AM": 3068,
      "CO": 3069,
      "Coll": 3070,
      "Circ": 3071,
      "Dance": 3072,
      "Fun": 3073,
      "Fred": 3074,
      "Key": 3075,
      "Lenn": 3076,
      "Mot": 3077,
      "NAME": 3078,
      "People": 3079,
      "Sun": 3080,
      "Time": 3081,
      "UK": 3082,
      "af": 3083,
      "cut": 3084,
      "five": 3085,
      "luck": 3086,
      "parent": 3087,
      "ri": 3088,
      "ras": 3089,
      "sat": 3090,
      "six": 3091,
      "sorry": 3092,
      "vibe": 3093,
      "wear": 3094,
      "walk": 3095,
      "yes.": 3096,
      "##uff": 3097,
      "##co": 3098,
      "##ves.": 3099,
      "##ak": 3100,
      "##ah,": 3101,
      "##p.": 3102,
      "##ymph": 3103,
      "##IND": 3104,
      "##﻿.": 3105,
      "##atic": 3106,
      "##eaven": 3107,
      "you'd": 3108,
      "##icag": 3109,
      "##an?": 3110,
      "##its": 3111,
      "##ass.": 3112,
      "##is.": 3113,
      "##is?": 3114,
      "##ison": 3115,
      "stage.": 3116,
      "##etter": 3117,
      "##alking": 3118,
      "why.": 3119,
      "hear.": 3120,
      "##sel": 3121,
      "Young": 3122,
      "##ister": 3123,
      "going.": 3124,
      "##ross": 3125,
      "among": 3126,
      "##ant.": 3127,
      "send": 3128,
      "##able.": 3129,
      "##io.": 3130,
      "Str": 3131,
      "Chicag": 3132,
      "classics": 3133,
      "Weird": 3134,
      "definitely.": 3135,
      "performance": 3136,
      "movies.": 3137,
      "works": 3138,
      "##ester": 3139,
      "drive": 3140,
      "course.": 3141,
      "##ugar": 3142,
      "lets": 3143,
      "198": 3144,
      "least.": 3145,
      "okay,": 3146,
      "Doesn't": 3147,
      "week.": 3148,
      "mind.": 3149,
      "world.": 3150,
      "##land.": 3151,
      "everything,": 3152,
      "train": 3153,
      "autogra": 3154,
      "Haha,": 3155,
      "piec": 3156,
      "piece": 3157,
      "duet": 3158,
      "Radiohead": 3159,
      "Comp": 3160,
      "busin": 3161,
      "Timberlake": 3162,
      "glad": 3163,
      "BAND": 3164,
      "genius.": 3165,
      "variety": 3166,
      "Gaga": 3167,
      "sometimes.": 3168,
      "tribute": 3169,
      "18": 3170,
      "70s": 3171,
      "ARE": 3172,
      "Corn": 3173,
      "En": 3174,
      "Ell": 3175,
      "Foo": 3176,
      "Fle": 3177,
      "Face": 3178,
      "Gu": 3179,
      "Gos": 3180,
      "Garth": 3181,
      "Green": 3182,
      "Hu": 3183,
      "HER": 3184,
      "Id": 3185,
      "IN": 3186,
      "Iron": 3187,
      "Lil": 3188,
      "Linkin": 3189,
      "MY": 3190,
      "Min": 3191,
      "Mal": 3192,
      "Pear": 3193,
      "Roy": 3194,
      "Sorry": 3195,
      "Tra": 3196,
      "York": 3197,
      "bar": 3198,
      "fing": 3199,
      "night.": 3200,
      "po": 3201,
      "paid": 3202,
      "purch": 3203,
      "red": 3204,
      "rid": 3205,
      "rand": 3206,
      "ready": 3207,
      "tre": 3208,
      "wat": 3209,
      "##AY": 3210,
      "##DC": 3211,
      "##ORE": 3212,
      "##ins": 3213,
      "##inat": 3214,
      "living": 3215,
      "##esh": 3216,
      "doll": 3217,
      "was,": 3218,
      "##earch": 3219,
      "##alt": 3220,
      "##al,": 3221,
      "##omant": 3222,
      "abil": 3223,
      "##sey": 3224,
      "##ctor": 3225,
      "please": 3226,
      "whats": 3227,
      "Oh.": 3228,
      "bands,": 3229,
      "me!": 3230,
      "sounds.": 3231,
      "##ist.": 3232,
      "from?": 3233,
      "##ign": 3234,
      "intro": 3235,
      "##ate,": 3236,
      "##amb": 3237,
      "comm": 3238,
      "also.": 3239,
      "grunge": 3240,
      "fun!": 3241,
      "noise": 3242,
      "starts": 3243,
      "singers.": 3244,
      "part.": 3245,
      "looks": 3246,
      "##orning.": 3247,
      "download": 3248,
      "bit.": 3249,
      "disag": 3250,
      "Shania": 3251,
      "course!": 3252,
      "Ange": 3253,
      "creative": 3254,
      "honest.": 3255,
      "suppose": 3256,
      "playlist.": 3257,
      "head.": 3258,
      "perio": 3259,
      "signed": 3260,
      "signature": 3261,
      "Genes": 3262,
      "##known": 3263,
      "commercial": 3264,
      "marching": 3265,
      "fantastic": 3266,
      "Little": 3267,
      "Voice": 3268,
      "parents": 3269,
      "Pearl": 3270,
      "random": 3271,
      "\"G": 3272,
      "50": 3273,
      "AB": 3274,
      "AC": 3275,
      "Come": 3276,
      "Especially": 3277,
      "Gab": 3278,
      "Im": 3279,
      "LET": 3280,
      "ME": 3281,
      "Perf": 3282,
      "Ros": 3283,
      "Such": 3284,
      "SING": 3285,
      "Yout": 3286,
      "aud": 3287,
      "birth": 3288,
      "besid": 3289,
      "deal": 3290,
      "dark": 3291,
      "game": 3292,
      "giv": 3293,
      "hold": 3294,
      "syn": 3295,
      "yester": 3296,
      "##under": 3297,
      "##ii": 3298,
      "##o,": 3299,
      "##where.": 3300,
      "##gressive": 3301,
      "##IL": 3302,
      "##by": 3303,
      "##0s,": 3304,
      "##VER": 3305,
      "##O.": 3306,
      "##OTH": 3307,
      "##UT": 3308,
      "##ate.": 3309,
      "##ino": 3310,
      "##ret": 3311,
      "##en?": 3312,
      "##icia": 3313,
      "##ed?": 3314,
      "##id.": 3315,
      "step": 3316,
      "they'll": 3317,
      "##al?": 3318,
      "##umb": 3319,
      "ball": 3320,
      "Yeah!": 3321,
      "themes": 3322,
      "albums,": 3323,
      "##ctic": 3324,
      "songs!": 3325,
      "see,": 3326,
      "hadn't": 3327,
      "chill": 3328,
      "chord": 3329,
      "chance.": 3330,
      "weird.": 3331,
      "worry": 3332,
      "club": 3333,
      "example": 3334,
      "concerts?": 3335,
      "first.": 3336,
      "fan?": 3337,
      "biggest": 3338,
      "##eason.": 3339,
      "##achel": 3340,
      "something?": 3341,
      "Aren't": 3342,
      "Bru": 3343,
      "harder": 3344,
      "hardcore": 3345,
      "brilli": 3346,
      "Blink": 3347,
      "Blue": 3348,
      "interesting,": 3349,
      "lately": 3350,
      "instead": 3351,
      "Joe": 3352,
      "Maybe,": 3353,
      "temp": 3354,
      "musicians.": 3355,
      "down.": 3356,
      "strong": 3357,
      "appeal": 3358,
      "196": 3359,
      "##mber.": 3360,
      "consist": 3361,
      "yes!": 3362,
      "entertain": 3363,
      "80's.": 3364,
      "##ocket": 3365,
      "composer": 3366,
      "Twenty": 3367,
      "awards": 3368,
      "terrible.": 3369,
      "Absolutely.": 3370,
      "Monkey": 3371,
      "children": 3372,
      "boring.": 3373,
      "Lamar": 3374,
      "etc.": 3375,
      "others": 3376,
      "energy": 3377,
      "problem": 3378,
      "voices": 3379,
      "Also,": 3380,
      "British": 3381,
      "blend": 3382,
      "rhythm": 3383,
      "polit": 3384,
      "##fortun": 3385,
      "disappoint": 3386,
      "Sarah": 3387,
      "Canadian": 3388,
      "serious?": 3389,
      "Kanye": 3390,
      "Sheeran": 3391,
      "Gabrie": 3392,
      "Perfect": 3393,
      "60's": 3394,
      "Bar": 3395,
      "Cel": 3396,
      "FE": 3397,
      "Fight": 3398,
      "Ger": 3399,
      "Head": 3400,
      "Jenn": 3401,
      "Kid": 3402,
      "Kind": 3403,
      "Mo": 3404,
      "Mor": 3405,
      "Ri": 3406,
      "SE": 3407,
      "SOU": 3408,
      "Top": 3409,
      "U.": 3410,
      "air": 3411,
      "bill": 3412,
      "bra": 3413,
      "crow": 3414,
      "fil": 3415,
      "hurt": 3416,
      "i'm": 3417,
      "lang": 3418,
      "mult": 3419,
      "##ced": 3420,
      "##come": 3421,
      "##do": 3422,
      "##ks": 3423,
      "##ky": 3424,
      "##you": 3425,
      "##IG": 3426,
      "##IT": 3427,
      "##E.": 3428,
      "##back": 3429,
      "##/DC": 3430,
      "##ins,": 3431,
      "##reed": 3432,
      "##ics": 3433,
      "of,": 3434,
      "##an,": 3435,
      "##or,": 3436,
      "##asion": 3437,
      "##oop": 3438,
      "##ellow": 3439,
      "neith": 3440,
      "White": 3441,
      "love.": 3442,
      "member": 3443,
      "Dog": 3444,
      "out!": 3445,
      "sounding": 3446,
      "newest": 3447,
      "hasn't": 3448,
      "master": 3449,
      "web": 3450,
      "there,": 3451,
      "clear": 3452,
      "year,": 3453,
      "examp": 3454,
      "tried": 3455,
      "truly": 3456,
      "##abb": 3457,
      "called,": 3458,
      "##ine,": 3459,
      "Chili": 3460,
      "group,": 3461,
      "relation": 3462,
      "around.": 3463,
      "tour.": 3464,
      "try.": 3465,
      "movie.": 3466,
      "dream": 3467,
      "recently?": 3468,
      "qual": 3469,
      "string": 3470,
      "throughout": 3471,
      "Spotify": 3472,
      "appear": 3473,
      "conte": 3474,
      "CDs": 3475,
      "dancing.": 3476,
      "said,": 3477,
      "OK.": 3478,
      "certainly": 3479,
      "discover": 3480,
      "Two": 3481,
      "soon?": 3482,
      "Phil": 3483,
      "orchestr": 3484,
      "extra": 3485,
      "Bowie": 3486,
      "nineties": 3487,
      "Pilot": 3488,
      "Scott": 3489,
      "doubt": 3490,
      "Fleet": 3491,
      "Idol": 3492,
      "watched": 3493,
      "##omantic": 3494,
      "period": 3495,
      "SOUND": 3496,
      "langu": 3497,
      "BE": 3498,
      "Beach": 3499,
      "Cas": 3500,
      "Dio": 3501,
      "Dud": 3502,
      "Detro": 3503,
      "FR": 3504,
      "Here": 3505,
      "Heaven": 3506,
      "Ig": 3507,
      "Kurt": 3508,
      "Lis": 3509,
      "Lots": 3510,
      "Manc": 3511,
      "Nice.": 3512,
      "OR": 3513,
      "Park": 3514,
      "Rich": 3515,
      "Rush": 3516,
      "Sugar": 3517,
      "Veg": 3518,
      "Wu": 3519,
      "Wond": 3520,
      "aff": 3521,
      "cute": 3522,
      "cred": 3523,
      "die": 3524,
      "educ": 3525,
      "gang": 3526,
      "garb": 3527,
      "iT": 3528,
      "ke": 3529,
      "link": 3530,
      "mot": 3531,
      "norm": 3532,
      "nice.": 3533,
      "picked": 3534,
      "road": 3535,
      "silly": 3536,
      "##s\"": 3537,
      "##ior": 3538,
      "##ias": 3539,
      "##cument": 3540,
      "##ning.": 3541,
      "##der": 3542,
      "##ream": 3543,
      "##lan": 3544,
      "##like": 3545,
      "##por": 3546,
      "##part": 3547,
      "##k.": 3548,
      "##gra": 3549,
      "##ming": 3550,
      "##yes": 3551,
      "##bow": 3552,
      "##'.": 3553,
      "##0.": 3554,
      "##D.": 3555,
      "##ony": 3556,
      "##enny": 3557,
      "liter": 3558,
      "limit": 3559,
      "##met": 3560,
      "document": 3561,
      "alone": 3562,
      "##umble": 3563,
      "##oming": 3564,
      "themsel": 3565,
      "Hey.": 3566,
      "sound,": 3567,
      "gos": 3568,
      "##all.": 3569,
      "Thunder": 3570,
      "Howard": 3571,
      "How'd": 3572,
      "Ha!": 3573,
      "worse": 3574,
      "say,": 3575,
      "means": 3576,
      "##other.": 3577,
      "recog": 3578,
      "well?": 3579,
      "most?": 3580,
      "yeah!": 3581,
      "best?": 3582,
      "everyone.": 3583,
      "show,": 3584,
      "##ange.": 3585,
      "actually,": 3586,
      "going?": 3587,
      "live,": 3588,
      "become": 3589,
      "##own.": 3590,
      "longer": 3591,
      "groups.": 3592,
      "little.": 3593,
      "relate": 3594,
      "Britney": 3595,
      "Alicia": 3596,
      "##ia.": 3597,
      "##haha": 3598,
      "Something": 3599,
      "performanc": 3600,
      "voice,": 3601,
      "putting": 3602,
      "##ression": 3603,
      "##izk": 3604,
      "##ized": 3605,
      "unfortun": 3606,
      "ok.": 3607,
      "leave": 3608,
      "##OUT": 3609,
      "both.": 3610,
      "stream": 3611,
      "Should": 3612,
      "##ERE": 3613,
      "recorded": 3614,
      "Spring": 3615,
      "Clark": 3616,
      "track.": 3617,
      "##LLY": 3618,
      "believe.": 3619,
      "Ann": 3620,
      "helps": 3621,
      "rapper.": 3622,
      "loving": 3623,
      "##ful,": 3624,
      "remix": 3625,
      "tonight": 3626,
      "waiting": 3627,
      "simple": 3628,
      "created": 3629,
      "career.": 3630,
      "alternative.": 3631,
      "phone": 3632,
      "electric": 3633,
      "once,": 3634,
      "travel": 3635,
      "Plus": 3636,
      "Everyone": 3637,
      "young.": 3638,
      "##-punk": 3639,
      "channel.": 3640,
      "Hmm,": 3641,
      "opening": 3642,
      "unique.": 3643,
      "passed": 3644,
      "passion": 3645,
      "##rench": 3646,
      "Eminem.": 3647,
      "HAVEN'T": 3648,
      "transl": 3649,
      "Agreed!": 3650,
      "Jimmy": 3651,
      "beginning": 3652,
      "GOO": 3653,
      "skill": 3654,
      "elements": 3655,
      "selling": 3656,
      "figure": 3657,
      "collaboration": 3658,
      "Billboard": 3659,
      "Seriously?": 3660,
      "##break": 3661,
      "online": 3662,
      "diverse": 3663,
      "Journey": 3664,
      "remember.": 3665,
      "Paul": 3666,
      "##erosmith": 3667,
      "charact": 3668,
      "riff": 3669,
      "Cornell": 3670,
      "besides": 3671,
      "gives": 3672,
      "synth": 3673,
      "political": 3674,
      "Gabriel": 3675,
      "iTun": 3676,
      "recogn": 3677,
      "AL": 3678,
      "Aerosmith": 3679,
      "Bad": 3680,
      "Call": 3681,
      "Di": 3682,
      "Dire": 3683,
      "DID": 3684,
      "Fox": 3685,
      "Gas": 3686,
      "Gro": 3687,
      "Ir": 3688,
      "Mast": 3689,
      "Mark": 3690,
      "Mesh": 3691,
      "Rog": 3692,
      "REA": 3693,
      "Sn": 3694,
      "Sch": 3695,
      "Side": 3696,
      "Sinat": 3697,
      "Try": 3698,
      "ahead": 3699,
      "fine.": 3700,
      "foc": 3701,
      "low": 3702,
      "med": 3703,
      "natur": 3704,
      "pub": 3705,
      "pict": 3706,
      "rain": 3707,
      "reason.": 3708,
      "sleep": 3709,
      "tupac": 3710,
      "vio": 3711,
      "wizk": 3712,
      "##sy": 3713,
      "##cad": 3714,
      "##r.": 3715,
      "##round": 3716,
      "##ried": 3717,
      "##ting.": 3718,
      "##lic": 3719,
      "##pac": 3720,
      "##ma": 3721,
      "##house": 3722,
      "##ying": 3723,
      "##book": 3724,
      "##form": 3725,
      "##A.": 3726,
      "##CR": 3727,
      "those.": 3728,
      "##er\"": 3729,
      "##it?": 3730,
      "##ite.": 3731,
      "##oogle": 3732,
      "##ise.": 3733,
      "Whatever": 3734,
      "##omin": 3735,
      "anim": 3736,
      "You'll": 3737,
      "cann": 3738,
      "short": 3739,
      "singing.": 3740,
      "Ha,": 3741,
      "church": 3742,
      "##osh": 3743,
      "##osing": 3744,
      "##ifer": 3745,
      "few.": 3746,
      "##ondon": 3747,
      "Best": 3748,
      "##ance,": 3749,
      "amazing,": 3750,
      "hit.": 3751,
      "Brook": 3752,
      "popular?": 3753,
      "touring": 3754,
      "performance.": 3755,
      "Def": 3756,
      "drink": 3757,
      "Trans": 3758,
      "happens": 3759,
      "today's": 3760,
      "Spice": 3761,
      "Mars": 3762,
      "crap": 3763,
      "surround": 3764,
      "yet?": 3765,
      "rappers": 3766,
      "beautiful.": 3767,
      "##man.": 3768,
      "left": 3769,
      "enough.": 3770,
      "Steven": 3771,
      "point.": 3772,
      "Thanks,": 3773,
      "import": 3774,
      "special.": 3775,
      "Yup.": 3776,
      "summer.": 3777,
      "Awesome!": 3778,
      "town.": 3779,
      "##arboy": 3780,
      "##uggah": 3781,
      "mainstream.": 3782,
      "job.": 3783,
      "home.": 3784,
      "matter": 3785,
      "Peter": 3786,
      "judg": 3787,
      "noticed": 3788,
      "Know": 3789,
      "appreciate": 3790,
      "iconic": 3791,
      "Gospel": 3792,
      "purchase": 3793,
      "trend": 3794,
      "AC/DC": 3795,
      "German": 3796,
      "crowd": 3797,
      "relationship": 3798,
      "Meshuggah": 3799,
      "Sinatra": 3800,
      "focus": 3801,
      "natural": 3802,
      "100": 3803,
      "5,": 3804,
      "Age": 3805,
      "Ball": 3806,
      "Born": 3807,
      "Better": 3808,
      "DM": 3809,
      "ED": 3810,
      "Eag": 3811,
      "Fa": 3812,
      "Free": 3813,
      "Future": 3814,
      "Gard": 3815,
      "Jean": 3816,
      "Las": 3817,
      "Mat": 3818,
      "Mind": 3819,
      "Mass": 3820,
      "Moon": 3821,
      "Off": 3822,
      "Ozz": 3823,
      "Per": 3824,
      "Res": 3825,
      "Sum": 3826,
      "Sand": 3827,
      "Umm": 3828,
      "Wom": 3829,
      "Willi": 3830,
      "Yan": 3831,
      "caught": 3832,
      "ep": 3833,
      "eff": 3834,
      "fres": 3835,
      "free.": 3836,
      "hes": 3837,
      "hated": 3838,
      "lack": 3839,
      "mass": 3840,
      "root": 3841,
      "tea": 3842,
      "wanna": 3843,
      "##ury": 3844,
      "##ik": 3845,
      "##ier.": 3846,
      "##ner": 3847,
      "##de": 3848,
      "##dy.": 3849,
      "##ok": 3850,
      "##o?": 3851,
      "##rated.": 3852,
      "##aoke": 3853,
      "##ling": 3854,
      "##g.": 3855,
      "##mi": 3856,
      "##min": 3857,
      "##hh": 3858,
      "##here": 3859,
      "##?\"": 3860,
      "##bell": 3861,
      "##-s": 3862,
      "##-f": 3863,
      "##friend": 3864,
      "##50": 3865,
      "##z.": 3866,
      "##You": 3867,
      "##&b": 3868,
      "##7.": 3869,
      "##ous.": 3870,
      "##atal": 3871,
      "##in.": 3872,
      "##ince.": 3873,
      "##ony.": 3874,
      "##es\"": 3875,
      "##orary": 3876,
      "##me.": 3877,
      "##as,": 3878,
      "##ason": 3879,
      "##uth": 3880,
      "##ution": 3881,
      "##edic": 3882,
      "on!": 3883,
      "ones,": 3884,
      "##arre": 3885,
      "##ary.": 3886,
      "##araoke": 3887,
      "##is,": 3888,
      "door": 3889,
      "wasnt": 3890,
      "alive,": 3891,
      "stage": 3892,
      "##et.": 3893,
      "##ales": 3894,
      "##aline": 3895,
      "##s.\"": 3896,
      "##ver.": 3897,
      "whale": 3898,
      "ang": 3899,
      "but,": 3900,
      "fav": 3901,
      "formed": 3902,
      "good!": 3903,
      "neat.": 3904,
      "repl": 3905,
      "review": 3906,
      "with?": 3907,
      "did!": 3908,
      "her,": 3909,
      "##aday": 3910,
      "##raid": 3911,
      "player.": 3912,
      "great?": 3913,
      "##ame.": 3914,
      "she?": 3915,
      "##ally,": 3916,
      "god": 3917,
      "concept": 3918,
      "guess,": 3919,
      "am.": 3920,
      "pres": 3921,
      "del": 3922,
      "debut": 3923,
      "himself": 3924,
      "##thern": 3925,
      "west": 3926,
      "oldies": 3927,
      "clar": 3928,
      "##ure,": 3929,
      "##others": 3930,
      "##ianna": 3931,
      "nowaday": 3932,
      "##ation,": 3933,
      "best,": 3934,
      "everywhere": 3935,
      "Stra": 3936,
      "Stones": 3937,
      "no.": 3938,
      "##agn": 3939,
      "Chick": 3940,
      "makeup": 3941,
      "radio,": 3942,
      "##ibly": 3943,
      "twice": 3944,
      "genres.": 3945,
      "brings": 3946,
      "Death": 3947,
      "##mporary": 3948,
      "unknown": 3949,
      "Soundgard": 3950,
      "ok,": 3951,
      "THEIR": 3952,
      "spotify": 3953,
      "doing?": 3954,
      "happen?": 3955,
      "records": 3956,
      "Sure.": 3957,
      "person.": 3958,
      "huh?": 3959,
      "Arctic": 3960,
      "##ccasion": 3961,
      "beautiful,": 3962,
      "decent": 3963,
      "original.": 3964,
      "From": 3965,
      "##quire": 3966,
      "Award": 3967,
      "exactly.": 3968,
      "general": 3969,
      "turned": 3970,
      "SONGS": 3971,
      "anymore?": 3972,
      "features": 3973,
      "NOT": 3974,
      "piano.": 3975,
      "##attle": 3976,
      "England": 3977,
      "impressive": 3978,
      "soul.": 3979,
      "standard": 3980,
      "complex": 3981,
      "##ING.": 3982,
      "YouTube.": 3983,
      "studio": 3984,
      "title": 3985,
      "taste.": 3986,
      "Awesome,": 3987,
      "mood.": 3988,
      "message": 3989,
      "expand": 3990,
      "terrible": 3991,
      "Leon": 3992,
      "##ugged": 3993,
      "Maybe.": 3994,
      "childhood": 3995,
      "killed": 3996,
      "kidding.": 3997,
      "grand": 3998,
      "##morrow": 3999,
      "lineup": 4000,
      "##ivers": 4001,
      "attend": 4002,
      "production": 4003,
      "recommendations?": 4004,
      "correct": 4005,
      "touch": 4006,
      "eventually": 4007,
      "hymn": 4008,
      "parody": 4009,
      "awhile.": 4010,
      "sometime.": 4011,
      "teenage": 4012,
      "Korean": 4013,
      "yea,": 4014,
      "describe": 4015,
      "Chicago": 4016,
      "Jennifer": 4017,
      "U.S.": 4018,
      "Manche": 4019,
      "motiv": 4020,
      "literally": 4021,
      "themselves": 4022,
      "gospel": 4023,
      "REALLY": 4024,
      "EDM": 4025,
      "William": 4026,
      "..": 4027,
      "Bry": 4028,
      "Billy": 4029,
      "Col": 4030,
      "Edd": 4031,
      "Hall": 4032,
      "High": 4033,
      "Houst": 4034,
      "Jones": 4035,
      "Last": 4036,
      "Mir": 4037,
      "Mac": 4038,
      "Miss": 4039,
      "Matt": 4040,
      "Nor": 4041,
      "Oper": 4042,
      "Rachel": 4043,
      "Sabb": 4044,
      "Walk": 4045,
      "born": 4046,
      "food": 4047,
      "far.": 4048,
      "fash": 4049,
      "hell": 4050,
      "horn": 4051,
      "hilar": 4052,
      "key": 4053,
      "mater": 4054,
      "nut": 4055,
      "pump": 4056,
      "wife": 4057,
      "##uct": 4058,
      "##i?": 4059,
      "##ily.": 4060,
      "##cord": 4061,
      "##vill": 4062,
      "##off": 4063,
      "##rix": 4064,
      "##a's": 4065,
      "##ls": 4066,
      "##lcome": 4067,
      "##pie": 4068,
      "##port": 4069,
      "##whel": 4070,
      "##yste": 4071,
      "##IE": 4072,
      "##ED": 4073,
      "##field": 4074,
      "##zen": 4075,
      "##que": 4076,
      "##&B": 4077,
      "##oud.": 4078,
      "##ndred": 4079,
      "##icul": 4080,
      "##ana": 4081,
      "##ito": 4082,
      "ones?": 4083,
      "alt": 4084,
      "alone.": 4085,
      "stick": 4086,
      "Whats": 4087,
      "##ential": 4088,
      "repe": 4089,
      "Oh!": 4090,
      "all,": 4091,
      "player": 4092,
      "##iew": 4093,
      "##iest": 4094,
      "organ": 4095,
      "No!": 4096,
      "conne": 4097,
      "##ocks": 4098,
      "amb": 4099,
      "this.": 4100,
      "How's": 4101,
      "Hag": 4102,
      "deg": 4103,
      "does,": 4104,
      "we're": 4105,
      "sure!": 4106,
      "trip": 4107,
      "groo": 4108,
      "Child": 4109,
      "Why's": 4110,
      "##les?": 4111,
      "hits?": 4112,
      "Brad": 4113,
      "brass": 4114,
      "before?": 4115,
      "##izz": 4116,
      "##orning": 4117,
      "Jov": 4118,
      "jazz,": 4119,
      "2000": 4120,
      "guys.": 4121,
      "needs": 4122,
      "##son,": 4123,
      "through.": 4124,
      "##ashvill": 4125,
      "hundred": 4126,
      "contro": 4127,
      "helped": 4128,
      "rapper?": 4129,
      "vocalist": 4130,
      "About": 4131,
      "terms": 4132,
      "honestly": 4133,
      "away.": 4134,
      "months": 4135,
      "\"All": 4136,
      "thanks": 4137,
      "compared": 4138,
      "venue.": 4139,
      "##incy": 4140,
      "YES,": 4141,
      "figured": 4142,
      "Lorde": 4143,
      "Nope,": 4144,
      "Quincy": 4145,
      "South": 4146,
      "Zeppel": 4147,
      "complain": 4148,
      "industry": 4149,
      "include": 4150,
      "obviously": 4151,
      "Alex": 4152,
      "names": 4153,
      "minutes": 4154,
      "Honestly,": 4155,
      "Motown": 4156,
      "Celine": 4157,
      "Dude,": 4158,
      "Direction": 4159,
      "Gaslight": 4160,
      "wizkid": 4161,
      "fashion": 4162,
      "\"l": 4163,
      "\"J": 4164,
      "--": 4165,
      "21": 4166,
      "31": 4167,
      "ALL": 4168,
      "Bu": 4169,
      "Bee": 4170,
      "Cob": 4171,
      "DI": 4172,
      "Dyl": 4173,
      "Evan": 4174,
      "FA": 4175,
      "French": 4176,
      "Gw": 4177,
      "Hard": 4178,
      "Heav": 4179,
      "IF": 4180,
      "Ill": 4181,
      "Kir": 4182,
      "Kings": 4183,
      "KIND": 4184,
      "La": 4185,
      "Lou": 4186,
      "Mart": 4187,
      "Mount": 4188,
      "Nah": 4189,
      "Op": 4190,
      "POP": 4191,
      "RO": 4192,
      "Ron": 4193,
      "Rust": 4194,
      "Root": 4195,
      "Sm": 4196,
      "Sir": 4197,
      "Sha": 4198,
      "Tears": 4199,
      "Talking": 4200,
      "Wil": 4201,
      "Wanna": 4202,
      "apart": 4203,
      "bo": 4204,
      "ban": 4205,
      "car.": 4206,
      "cure.": 4207,
      "date": 4208,
      "evol": 4209,
      "fine": 4210,
      "hook": 4211,
      "hmm": 4212,
      "king": 4213,
      "lay": 4214,
      "lol": 4215,
      "mine.": 4216,
      "non": 4217,
      "oy": 4218,
      "opp": 4219,
      "occasion": 4220,
      "pos": 4221,
      "ring": 4222,
      "rad": 4223,
      "r&b": 4224,
      "sick": 4225,
      "symph": 4226,
      "tight": 4227,
      "wild": 4228,
      "ya": 4229,
      "{}": 4230,
      "##ua": 4231,
      "##ule": 4232,
      "##iber": 4233,
      "##ial.": 4234,
      "##com": 4235,
      "##no": 4236,
      "##nox": 4237,
      "##vat": 4238,
      "##vival": 4239,
      "##o!": 4240,
      "##oven": 4241,
      "##a\"": 4242,
      "##away": 4243,
      "##t,": 4244,
      "##pop": 4245,
      "##knd": 4246,
      "##kaline": 4247,
      "##gic": 4248,
      "##ger.": 4249,
      "##m?": 4250,
      "##mind": 4251,
      "##mert": 4252,
      "##mos": 4253,
      "##hianna": 4254,
      "##y's": 4255,
      "##EL": 4256,
      "##??": 4257,
      "##bert": 4258,
      "##-1": 4259,
      "##-H": 4260,
      "##-Z": 4261,
      "##6.": 4262,
      "##8.": 4263,
      "##9.": 4264,
      "##AZ": 4265,
      "##The": 4266,
      "##jent": 4267,
      "##oun": 4268,
      "##era": 4269,
      "theater": 4270,
      "##stal": 4271,
      "##sters": 4272,
      "tomorrow": 4273,
      "lil": 4274,
      "##ic,": 4275,
      "##iche": 4276,
      "of?": 4277,
      "itself": 4278,
      "##hat's": 4279,
      "onto": 4280,
      "be?": 4281,
      "##oof": 4282,
      "##ar?": 4283,
      "##ise?": 4284,
      "##lev": 4285,
      "are,": 4286,
      "##uman": 4287,
      "##vers": 4288,
      "##ently": 4289,
      "notes": 4290,
      "reun": 4291,
      "revol": 4292,
      "one's": 4293,
      "plus": 4294,
      "plac": 4295,
      "##ions.": 4296,
      "supris": 4297,
      "herself": 4298,
      "You,": 4299,
      "##ung": 4300,
      "play.": 4301,
      "shoot": 4302,
      "shirt": 4303,
      "don't.": 4304,
      "from.": 4305,
      "sing,": 4306,
      "see?": 4307,
      "conf": 4308,
      "stup": 4309,
      "kinds,": 4310,
      "##ived": 4311,
      "Think": 4312,
      "Three": 4313,
      "popp": 4314,
      "seven": 4315,
      "def": 4316,
      "##ateg": 4317,
      "many.": 4318,
      "Shelton": 4319,
      "says": 4320,
      "say.": 4321,
      "trad": 4322,
      "sax": 4323,
      "aware": 4324,
      "nostal": 4325,
      "##ard.": 4326,
      "first?": 4327,
      "Beeth": 4328,
      "##iple": 4329,
      "fans.": 4330,
      "difference": 4331,
      "##ouse.": 4332,
      "##ousand": 4333,
      "different,": 4334,
      "remember,": 4335,
      "day,": 4336,
      "name,": 4337,
      "thing?": 4338,
      "definitely!": 4339,
      "twenty": 4340,
      "Brother": 4341,
      "Alternative": 4342,
      "Although": 4343,
      "Alkaline": 4344,
      "##ia,": 4345,
      "brought": 4346,
      "touring.": 4347,
      "Neil": 4348,
      "video?": 4349,
      "work?": 4350,
      "guitar,": 4351,
      "guitarist": 4352,
      "lyrics,": 4353,
      "hop,": 4354,
      "hoping": 4355,
      "better?": 4356,
      "##obb": 4357,
      "kid.": 4358,
      "score": 4359,
      "scream": 4360,
      "down,": 4361,
      "speaking": 4362,
      "build": 4363,
      "##ment.": 4364,
      "Johnson": 4365,
      "March": 4366,
      "against": 4367,
      "Many": 4368,
      "writing": 4369,
      "bass.": 4370,
      "either,": 4371,
      "theres": 4372,
      "contr": 4373,
      "contin": 4374,
      "Rock.": 4375,
      "Rock,": 4376,
      "buying": 4377,
      "alright.": 4378,
      "drums": 4379,
      "CD.": 4380,
      "singing?": 4381,
      "SOME": 4382,
      "movie?": 4383,
      "##ever,": 4384,
      "Now,": 4385,
      "level": 4386,
      "maybe.": 4387,
      "wait.": 4388,
      "create": 4389,
      "taking": 4390,
      "changing": 4391,
      "changed.": 4392,
      "vocals.": 4393,
      "Hi,": 4394,
      "price": 4395,
      "##enef": 4396,
      "idea!": 4397,
      "progra": 4398,
      "tunes": 4399,
      "Jazz.": 4400,
      "boyfriend": 4401,
      "obnox": 4402,
      "understand.": 4403,
      "insane": 4404,
      "##EST": 4405,
      "Exactly!": 4406,
      "IT.": 4407,
      "Great!": 4408,
      "particular?": 4409,
      "Metallica.": 4410,
      "Hmm.": 4411,
      "Hmmm.": 4412,
      "##wards": 4413,
      "Awesome.": 4414,
      "exciting": 4415,
      "minor": 4416,
      "various": 4417,
      "model": 4418,
      "Floyd.": 4419,
      "Absolutely!": 4420,
      "cascad": 4421,
      "\"We": 4422,
      "edg": 4423,
      "anyway,": 4424,
      "era.": 4425,
      "along.": 4426,
      "kidding": 4427,
      "Franklin": 4428,
      "final": 4429,
      "subject": 4430,
      "foreign": 4431,
      "sucks": 4432,
      "fact,": 4433,
      "etc": 4434,
      "sitting": 4435,
      "Parad": 4436,
      "melodic": 4437,
      "explain": 4438,
      "ANOTH": 4439,
      "histor": 4440,
      "Temp": 4441,
      "Drake": 4442,
      "Rainbow": 4443,
      "judge": 4444,
      "opera.": 4445,
      "dropped": 4446,
      "annoying": 4447,
      "awhile": 4448,
      "Jay-Z": 4449,
      "Weeknd": 4450,
      "Zepplin": 4451,
      "songwriter": 4452,
      "includ": 4453,
      "charts": 4454,
      "experimental": 4455,
      "Pois": 4456,
      "given": 4457,
      "vinyl": 4458,
      "Pandora.": 4459,
      "Totally": 4460,
      "successful": 4461,
      "##ophone": 4462,
      "obsess": 4463,
      "Lennon": 4464,
      "afraid": 4465,
      "ABOUT": 4466,
      "Youtube": 4467,
      "audi": 4468,
      "Bruce": 4469,
      "brilliant": 4470,
      "contemporary": 4471,
      "credit": 4472,
      "violin": 4473,
      "DMC": 4474,
      "Ozzy": 4475,
      "Perhap": 4476,
      "Umm,": 4477,
      "Eddie": 4478,
      "ambient": 4479,
      "311": 4480,
      "Cobain": 4481,
      "Heavy": 4482,
      "Rusted": 4483,
      "oyeah": 4484,
      "##mertime": 4485,
      "Beethoven": 4486,
      "ANOTHER": 4487,
      "\"E": 4488,
      "\"st": 4489,
      "5.": 4490,
      "5?": 4491,
      "500": 4492,
      "Aven": 4493,
      "Both": 4494,
      "Care": 4495,
      "Earth": 4496,
      "Gor": 4497,
      "Imagine": 4498,
      "Jer": 4499,
      "Josh": 4500,
      "Jason": 4501,
      "Light": 4502,
      "Luke": 4503,
      "London": 4504,
      "Maid": 4505,
      "MORE": 4506,
      "Nashvill": 4507,
      "Oct": 4508,
      "Part": 4509,
      "Power": 4510,
      "R&B": 4511,
      "Tang": 4512,
      "Tye": 4513,
      "benef": 4514,
      "dates": 4515,
      "im": 4516,
      "kick": 4517,
      "linkin": 4518,
      "loud.": 4519,
      "mate,": 4520,
      "nomin": 4521,
      "range": 4522,
      "sam": 4523,
      "side": 4524,
      "search": 4525,
      "tone": 4526,
      "und": 4527,
      "vib": 4528,
      "virt": 4529,
      "##she": 4530,
      "##cess": 4531,
      "##cade": 4532,
      "##ole": 4533,
      "##ran": 4534,
      "##eed.": 4535,
      "##tic": 4536,
      "##la": 4537,
      "##ga": 4538,
      "##hl": 4539,
      "##hanna": 4540,
      "##yond": 4541,
      "##yl.": 4542,
      "##-in": 4543,
      "##-ro": 4544,
      "##ford": 4545,
      "##5.": 4546,
      "##TY": 4547,
      "##CH": 4548,
      "##3,": 4549,
      "##OY": 4550,
      "##’s": 4551,
      "##outh": 4552,
      "##at,": 4553,
      "##ates.": 4554,
      "theor": 4555,
      "##ster.": 4556,
      "##step": 4557,
      "toy": 4558,
      "##ense.": 4559,
      "##espac": 4560,
      "##ane.": 4561,
      "##'s?": 4562,
      "havent": 4563,
      "beyond": 4564,
      "social": 4565,
      "##ide.": 4566,
      "alive": 4567,
      "##e...": 4568,
      "##ette": 4569,
      "##ustr": 4570,
      "##illaz": 4571,
      "pleas": 4572,
      "plenty": 4573,
      "##adium": 4574,
      "You've": 4575,
      "favorite,": 4576,
      "##cember": 4577,
      "all?": 4578,
      "##roll": 4579,
      "new?": 4580,
      "guy.": 4581,
      "up!": 4582,
      "chick": 4583,
      "##amore": 4584,
      "##anda": 4585,
      "##andy": 4586,
      "##and?": 4587,
      "actual": 4588,
      "concert,": 4589,
      "should.": 4590,
      "should!": 4591,
      "##ational": 4592,
      "fun,": 4593,
      "Sty": 4594,
      "Stone": 4595,
      "Andrew": 4596,
      "becoming": 4597,
      "those?": 4598,
      "But,": 4599,
      "days?": 4600,
      "##odern": 4601,
      "##iah": 4602,
      "##0's.": 4603,
      "December": 4604,
      "driving": 4605,
      "instrument.": 4606,
      "throw": 4607,
      "musician.": 4608,
      "metal?": 4609,
      "Show": 4610,
      "earth": 4611,
      "tells": 4612,
      "school.": 4613,
      "sorta": 4614,
      "\"Sh": 4615,
      "alread": 4616,
      "remake": 4617,
      "Except": 4618,
      "##duced": 4619,
      "Jackson.": 4620,
      "career": 4621,
      "region": 4622,
      "easy.": 4623,
      "slight": 4624,
      "boys": 4625,
      "featuring": 4626,
      "Play": 4627,
      "Exactly,": 4628,
      "##IST": 4629,
      "Queens": 4630,
      "message.": 4631,
      "expens": 4632,
      "weekend?": 4633,
      "incredible.": 4634,
      "lessons": 4635,
      "McC": 4636,
      "boring": 4637,
      "Songs": 4638,
      "Paramore": 4639,
      "ANY": 4640,
      "Kelly": 4641,
      "acoust": 4642,
      "Looking": 4643,
      "roomm": 4644,
      "Grande": 4645,
      "solo.": 4646,
      "Apple": 4647,
      "possible.": 4648,
      "drugs": 4649,
      "giant": 4650,
      "vinyl.": 4651,
      "dude.": 4652,
      "Facebook": 4653,
      "ridicul": 4654,
      "members.": 4655,
      "masterpie": 4656,
      "quality": 4657,
      "discovered": 4658,
      "language": 4659,
      "Springste": 4660,
      "ALS": 4661,
      "Grohl": 4662,
      "Irish": 4663,
      "cannot": 4664,
      "Miranda": 4665,
      "\"starboy": 4666,
      "Gorillaz": 4667,
      "##-rock": 4668,
      "masterpiece.": 4669,
      "\"O": 4670,
      "\"You": 4671,
      "'D": 4672,
      "30": 4673,
      "Att": 4674,
      "Ant": 4675,
      "Bay": 4676,
      "Bell": 4677,
      "Cle": 4678,
      "City": 4679,
      "DV": 4680,
      "Del": 4681,
      "Dix": 4682,
      "Djent": 4683,
      "Eas": 4684,
      "Emp": 4685,
      "Eyes": 4686,
      "Fer": 4687,
      "Found": 4688,
      "Fro": 4689,
      "Fair": 4690,
      "Gold": 4691,
      "Kill": 4692,
      "Kim": 4693,
      "King,": 4694,
      "Krist": 4695,
      "KIS": 4696,
      "Lu": 4697,
      "Lion": 4698,
      "Mid": 4699,
      "Me.": 4700,
      "Must": 4701,
      "Mill": 4702,
      "Mur": 4703,
      "Men.": 4704,
      "Nic": 4705,
      "Nah,": 4706,
      "OUT": 4707,
      "PL": 4708,
      "Ry": 4709,
      "RE": 4710,
      "Romantic": 4711,
      "Rhianna": 4712,
      "ST": 4713,
      "Sat": 4714,
      "Sad": 4715,
      "Town": 4716,
      "Turn": 4717,
      "VER": 4718,
      "Wit": 4719,
      "Wish": 4720,
      "bum": 4721,
      "bias": 4722,
      "chat": 4723,
      "cure": 4724,
      "cele": 4725,
      "categ": 4726,
      "dub": 4727,
      "emb": 4728,
      "fus": 4729,
      "fight": 4730,
      "fool": 4731,
      "fif": 4732,
      "fix": 4733,
      "ju": 4734,
      "jay": 4735,
      "kep": 4736,
      "lin": 4737,
      "mil": 4738,
      "morning.": 4739,
      "mellow": 4740,
      "pea": 4741,
      "pink": 4742,
      "pant": 4743,
      "pull": 4744,
      "perry": 4745,
      "ra": 4746,
      "rag": 4747,
      "sus": 4748,
      "squ": 4749,
      "sweet": 4750,
      "sample": 4751,
      "sister": 4752,
      "tap": 4753,
      "tub": 4754,
      "ver": 4755,
      "vag": 4756,
      "whe": 4757,
      "wood": 4758,
      "wif": 4759,
      "##ues.": 4760,
      "##ues,": 4761,
      "##ury.": 4762,
      "##syn": 4763,
      "##spr": 4764,
      "##iot": 4765,
      "##iqu": 4766,
      "##ned": 4767,
      "##nard": 4768,
      "##vil": 4769,
      "##vice": 4770,
      "##oe": 4771,
      "##rill": 4772,
      "##em": 4773,
      "##ex": 4774,
      "##av": 4775,
      "##af": 4776,
      "##ton": 4777,
      "##ture": 4778,
      "##phed": 4779,
      "##wag": 4780,
      "##ging": 4781,
      "##hall": 4782,
      "##ham": 4783,
      "##y!": 4784,
      "##LD": 4785,
      "##bor": 4786,
      "##-met": 4787,
      "##0s?": 4788,
      "##POP": 4789,
      "##AD": 4790,
      "##TER": 4791,
      "##YY": 4792,
      "##MIL": 4793,
      "##HE": 4794,
      "##HA": 4795,
      "##ON": 4796,
      "##O,": 4797,
      "thousand": 4798,
      "##ater.": 4799,
      "##in't": 4800,
      "##inct": 4801,
      "theat": 4802,
      "theory": 4803,
      "##on's": 4804,
      "##eap": 4805,
      "##eaf": 4806,
      "##rey": 4807,
      "to!": 4808,
      "you!": 4809,
      "lie": 4810,
      "liking": 4811,
      "##ical.": 4812,
      "##vey": 4813,
      "##ano": 4814,
      "##anic": 4815,
      "##orus": 4816,
      "##orpor": 4817,
      "##it,": 4818,
      "##ited": 4819,
      "##ital": 4820,
      "##ities": 4821,
      "it\"": 4822,
      "##ownt": 4823,
      "iss": 4824,
      "is!": 4825,
      "##ute.": 4826,
      "on,": 4827,
      "inn": 4828,
      "invol": 4829,
      "##isc": 4830,
      "##ldean": 4831,
      "##iday": 4832,
      "stro": 4833,
      "they'd": 4834,
      "##omen": 4835,
      "anx": 4836,
      "thinks": 4837,
      "I'LL": 4838,
      "list.": 4839,
      "notes.": 4840,
      "##se?": 4841,
      "refer": 4842,
      "require": 4843,
      "relev": 4844,
      "##vorite": 4845,
      "While": 4846,
      "place.": 4847,
      "did?": 4848,
      "##ion?": 4849,
      "##inding": 4850,
      "fried": 4851,
      "anybody": 4852,
      "anywhere": 4853,
      "all-": 4854,
      "playing.": 4855,
      "shes": 4856,
      "asso": 4857,
      "asked": 4858,
      "gold": 4859,
      "order": 4860,
      "##.....": 4861,
      "ever.": 4862,
      "condu": 4863,
      "atmos": 4864,
      "am,": 4865,
      "kind.": 4866,
      "intense": 4867,
      "pret": 4868,
      "him!": 4869,
      "age.": 4870,
      "##ately.": 4871,
      "chorus": 4872,
      "So?": 4873,
      "coming.": 4874,
      "artist,": 4875,
      "clothing": 4876,
      "Who?": 4877,
      "saying.": 4878,
      "meaning": 4879,
      "trance": 4880,
      "truck": 4881,
      "active": 4882,
      "##abam": 4883,
      "##ified": 4884,
      "recall": 4885,
      "died.": 4886,
      "##ourite": 4887,
      "Stand": 4888,
      "##ages": 4889,
      "first,": 4890,
      "ways": 4891,
      "##anger": 4892,
      "classical.": 4893,
      "Ok.": 4894,
      "into?": 4895,
      "same,": 4896,
      "make?": 4897,
      "name?": 4898,
      "##les,": 4899,
      "Like,": 4900,
      "haven't,": 4901,
      "##ibb": 4902,
      "twain": 4903,
      "twang": 4904,
      "two.": 4905,
      "genre,": 4906,
      "genres?": 4907,
      "hitting": 4908,
      "THIN": 4909,
      "brown": 4910,
      "tours": 4911,
      "black": 4912,
      "performs": 4913,
      "talented,": 4914,
      "videos?": 4915,
      "works.": 4916,
      "##ized.": 4917,
      "off.": 4918,
      "Anyone": 4919,
      "unless": 4920,
      "recently,": 4921,
      "scale": 4922,
      "space": 4923,
      "beatles": 4924,
      "ads": 4925,
      "strange.": 4926,
      "sad,": 4927,
      "Yep!": 4928,
      "Clear": 4929,
      "Club": 4930,
      "Marvin": 4931,
      "appro": 4932,
      "##ated?": 4933,
      "##ogue": 4934,
      "track,": 4935,
      "America.": 4936,
      "##ash.": 4937,
      "base": 4938,
      "mixed": 4939,
      "own.": 4940,
      "Prince.": 4941,
      "decent.": 4942,
      "##man,": 4943,
      "nice,": 4944,
      "missing": 4945,
      "incorpor": 4946,
      "mind,": 4947,
      "##augh": 4948,
      "Swing": 4949,
      "creative.": 4950,
      "Beatles?": 4951,
      "care.": 4952,
      "flow": 4953,
      "regard": 4954,
      "together?": 4955,
      "phr": 4956,
      "phas": 4957,
      "phone.": 4958,
      "generation": 4959,
      "WITH": 4960,
      "technically": 4961,
      "tickets?": 4962,
      "##ocked": 4963,
      "soundtrack.": 4964,
      "Thanks.": 4965,
      "impression": 4966,
      "southern": 4967,
      "Probably,": 4968,
      "Sex": 4969,
      "spend": 4970,
      "familiar,": 4971,
      "Country,": 4972,
      "money.": 4973,
      "Boys.": 4974,
      "Nicks": 4975,
      "particular,": 4976,
      "##irty": 4977,
      "study": 4978,
      "Christina": 4979,
      "majority": 4980,
      "opened": 4981,
      "terror": 4982,
      "label.": 4983,
      "often.": 4984,
      "began": 4985,
      "Hops": 4986,
      "Sund": 4987,
      "auto": 4988,
      "case": 4989,
      "case,": 4990,
      "\"Wh": 4991,
      "specifically": 4992,
      "currently": 4993,
      "Maynard": 4994,
      "melody": 4995,
      "edge": 4996,
      "Mont": 4997,
      "power": 4998,
      "thanks.": 4999,
      "deep,": 5000,
      "announ": 5001,
      "##velop": 5002,
      "Agreed.": 5003,
      "Agreed,": 5004,
      "Lamar.": 5005,
      "graph": 5006,
      "venue": 5007,
      "Gotta": 5008,
      "sucks.": 5009,
      "added": 5010,
      "trumpet.": 5011,
      "Days": 5012,
      "Glen": 5013,
      "influence": 5014,
      "influential": 5015,
      "following": 5016,
      "woman": 5017,
      "stories": 5018,
      "##ograph": 5019,
      "hours": 5020,
      "##ences": 5021,
      "Harris": 5022,
      "Keith": 5023,
      "history.": 5024,
      "decade.": 5025,
      "emotional": 5026,
      "blew": 5027,
      "distinct": 5028,
      "toured": 5029,
      "Nope.": 5030,
      "coach": 5031,
      "solid": 5032,
      "SHOW": 5033,
      "cru": 5034,
      "online.": 5035,
      "background.": 5036,
      "experience": 5037,
      "experience.": 5038,
      "Japanese": 5039,
      "eighte": 5040,
      "industry.": 5041,
      "Peppers": 5042,
      "fairly": 5043,
      "Seems": 5044,
      "Brand": 5045,
      "culture": 5046,
      "answer": 5047,
      "seats": 5048,
      "computer": 5049,
      "horrible": 5050,
      "##hemian": 5051,
      "memories": 5052,
      "argument": 5053,
      "Stones.": 5054,
      "Funny": 5055,
      "Fredd": 5056,
      "rasp": 5057,
      "autograph": 5058,
      "autographed": 5059,
      "pieces": 5060,
      "Comput": 5061,
      "Timberlake.": 5062,
      "dollar": 5063,
      "disagree.": 5064,
      "yesterday.": 5065,
      "Rihanna": 5066,
      "multiple": 5067,
      "webs": 5068,
      "Fleetwood": 5069,
      "FRIE": 5070,
      "Iggy": 5071,
      "link.": 5072,
      "performances.": 5073,
      "GOOD": 5074,
      "iTunes.": 5075,
      "Snoop": 5076,
      "media": 5077,
      "judges": 5078,
      "fresh": 5079,
      "favourite": 5080,
      "replace": 5081,
      "clarinet": 5082,
      "Sabbath": 5083,
      "hilarious.": 5084,
      "connect": 5085,
      "Gwen": 5086,
      "Mountain": 5087,
      "Open": 5088,
      "ROCK": 5089,
      "##-18": 5090,
      "Brothers.": 5091,
      "obsessed": 5092,
      "Dixie": 5093,
      "Ryan": 5094,
      "VERY": 5095,
      "kept": 5096,
      "##sync": 5097,
      "associ": 5098,
      "conductor": 5099,
      "THINK": 5100,
      "announced": 5101,
      "FRIEND": 5102,
      "60s": 5103,
      "Bas": 5104,
      "Bed": 5105,
      "Beautiful": 5106,
      "Buck": 5107,
      "Cat": 5108,
      "Cass": 5109,
      "Cage": 5110,
      "Dad": 5111,
      "Es": 5112,
      "East": 5113,
      "Elf": 5114,
      "Fear": 5115,
      "Fame": 5116,
      "FOR": 5117,
      "Gun": 5118,
      "Jun": 5119,
      "Ky": 5120,
      "LC": 5121,
      "Lind": 5122,
      "List": 5123,
      "Mam": 5124,
      "Mike": 5125,
      "Morning.": 5126,
      "Mr.": 5127,
      "Nas": 5128,
      "Oo": 5129,
      "Over": 5130,
      "Our": 5131,
      "Pal": 5132,
      "Pitch": 5133,
      "Rick": 5134,
      "Real": 5135,
      "Reason": 5136,
      "Rae": 5137,
      "Road": 5138,
      "San": 5139,
      "Sam": 5140,
      "Six": 5141,
      "Sub": 5142,
      "Tree": 5143,
      "W.": 5144,
      "Zim": 5145,
      "aver": 5146,
      "boo": 5147,
      "cow": 5148,
      "city": 5149,
      "dude": 5150,
      "kim": 5151,
      "losing": 5152,
      "mer": 5153,
      "mad": 5154,
      "pac": 5155,
      "sent": 5156,
      "sales": 5157,
      "vis": 5158,
      "view": 5159,
      "war": 5160,
      "##iant": 5161,
      "##ios": 5162,
      "##cra": 5163,
      "##cast": 5164,
      "##ef": 5165,
      "##ape": 5166,
      "##t's": 5167,
      "##ST": 5168,
      "##lol": 5169,
      "##ged": 5170,
      "##gic.": 5171,
      "##IM": 5172,
      "##NC": 5173,
      "##bl": 5174,
      "##,\"": 5175,
      "##-m": 5176,
      "##fork": 5177,
      "##AL": 5178,
      "##TS": 5179,
      "##atten": 5180,
      "##inal": 5181,
      "##eared": 5182,
      "##ndrix": 5183,
      "##ic?": 5184,
      "likely": 5185,
      "bel": 5186,
      "inv": 5187,
      "##ism.": 5188,
      "whitney": 5189,
      "forth": 5190,
      "held": 5191,
      "##eek": 5192,
      "rep": 5193,
      "rece": 5194,
      "band!": 5195,
      "done.": 5196,
      "heard?": 5197,
      "anytime": 5198,
      "Hendrix": 5199,
      "##unity": 5200,
      "shot.": 5201,
      "wouldnt": 5202,
      "would've": 5203,
      "time!": 5204,
      "amount": 5205,
      "coup": 5206,
      "select": 5207,
      "##ateful": 5208,
      "chipt": 5209,
      "##bel": 5210,
      "worst": 5211,
      "close.": 5212,
      "exist": 5213,
      "trust": 5214,
      "##ained": 5215,
      "divor": 5216,
      "direct": 5217,
      "want.": 5218,
      "most.": 5219,
      "grown": 5220,
      "Street": 5221,
      "Chance": 5222,
      "Chuck": 5223,
      "##cience": 5224,
      "long?": 5225,
      "overwhel": 5226,
      "days,": 5227,
      "thing,": 5228,
      "compar": 5229,
      "rap?": 5230,
      "##ha.": 5231,
      "blow": 5232,
      "blood": 5233,
      "Next": 5234,
      "voice?": 5235,
      "Devo": 5236,
      "come?": 5237,
      "guitars": 5238,
      "guitar?": 5239,
      "thought.": 5240,
      "favorites?": 5241,
      "Joel": 5242,
      "driv": 5243,
      "musician?": 5244,
      "bet,": 5245,
      "Good,": 5246,
      "strugg": 5247,
      "Soundsyste": 5248,
      "Spears": 5249,
      "Marley": 5250,
      "telling": 5251,
      "while,": 5252,
      "true?": 5253,
      "leader": 5254,
      "Revol": 5255,
      "Record": 5256,
      "station.": 5257,
      "surv": 5258,
      "contest": 5259,
      "wondered": 5260,
      "CD?": 5261,
      "girls.": 5262,
      "tons": 5263,
      "here,": 5264,
      "tape": 5265,
      "Grace": 5266,
      "##erry's": 5267,
      "techno.": 5268,
      "techniqu": 5269,
      "sets": 5270,
      "excell": 5271,
      "Again": 5272,
      "soundtracks": 5273,
      "Platten": 5274,
      "singers?": 5275,
      "married": 5276,
      "\"Bl": 5277,
      "studied": 5278,
      "resp": 5279,
      "respect": 5280,
      "choice.": 5281,
      "rolling": 5282,
      "Hope": 5283,
      "Perry.": 5284,
      "deser": 5285,
      "Usher": 5286,
      "learned": 5287,
      "Lambert": 5288,
      "Wayne": 5289,
      "attention": 5290,
      "Tool?": 5291,
      "depressing": 5292,
      "Grateful": 5293,
      "##enced": 5294,
      "depend": 5295,
      "youtube.": 5296,
      "Girls": 5297,
      "Drag": 5298,
      "Amazing": 5299,
      "Pilots": 5300,
      "orchestra.": 5301,
      "USA": 5302,
      "eighties": 5303,
      "snap": 5304,
      "profession": 5305,
      "Nice,": 5306,
      "interview": 5307,
      "Halen": 5308,
      "finger": 5309,
      "ability": 5310,
      "disagree": 5311,
      "Voice?": 5312,
      "Barry": 5313,
      "orchestral": 5314,
      "Lisz": 5315,
      "Richard": 5316,
      "garbage": 5317,
      "tonight?": 5318,
      "Mastod": 5319,
      "Roger": 5320,
      "trendy": 5321,
      "Manchester": 5322,
      "Bryan": 5323,
      "##ito\"": 5324,
      "degree": 5325,
      "fashioned": 5326,
      "benefit": 5327,
      "\"Shut": 5328,
      "ridiculous": 5329,
      "\"starboy\"": 5330,
      "Sunday": 5331,
      "Daddy": 5332,
      "LCD": 5333,
      "Listen": 5334,
      "Pitchfork": 5335,
      "13": 5336,
      "24": 5337,
      "3/": 5338,
      "80s.": 5339,
      "80s,": 5340,
      "90s.": 5341,
      "Ac": 5342,
      "Ak": 5343,
      "Ax": 5344,
      "Ara": 5345,
      "Aug": 5346,
      "B.": 5347,
      "Ben": 5348,
      "Bang": 5349,
      "Burn": 5350,
      "Birth": 5351,
      "Berry's": 5352,
      "Du": 5353,
      "Dre": 5354,
      "Dear": 5355,
      "Dust": 5356,
      "Doub": 5357,
      "Eat": 5358,
      "Ent": 5359,
      "Fal": 5360,
      "First": 5361,
      "Flo": 5362,
      "Folk": 5363,
      "Fons": 5364,
      "Gang": 5365,
      "Google": 5366,
      "Giant": 5367,
      "Het": 5368,
      "Hill": 5369,
      "Ju": 5370,
      "June": 5371,
      "Kook": 5372,
      "Kenn": 5373,
      "Kenny": 5374,
      "Long": 5375,
      "Lone": 5376,
      "Land": 5377,
      "Los": 5378,
      "Luck": 5379,
      "Lepp": 5380,
      "LIST": 5381,
      "Mach": 5382,
      "Morning": 5383,
      "Na": 5384,
      "NE": 5385,
      "NY": 5386,
      "Net": 5387,
      "Nap": 5388,
      "Nation": 5389,
      "Natal": 5390,
      "Nsync": 5391,
      "Ob": 5392,
      "Pie": 5393,
      "Pol": 5394,
      "Pres": 5395,
      "Punk": 5396,
      "Rose": 5397,
      "Rnb": 5398,
      "Rhap": 5399,
      "Rocket": 5400,
      "Sre": 5401,
      "Say": 5402,
      "Sil": 5403,
      "Scr": 5404,
      "Sleep": 5405,
      "Symph": 5406,
      "Search": 5407,
      "TR": 5408,
      "Too": 5409,
      "UP": 5410,
      "Ugh": 5411,
      "Um,": 5412,
      "U2.": 5413,
      "VID": 5414,
      "WE": 5415,
      "Wood": 5416,
      "Wall": 5417,
      "WERE": 5418,
      "YEA": 5419,
      "Zac": 5420,
      "av": 5421,
      "biz": 5422,
      "bar.": 5423,
      "beach": 5424,
      "box": 5425,
      "cal": 5426,
      "cell": 5427,
      "cam": 5428,
      "cos": 5429,
      "col": 5430,
      "cord": 5431,
      "cup": 5432,
      "cold": 5433,
      "cyn": 5434,
      "cross": 5435,
      "den": 5436,
      "dear": 5437,
      "dam": 5438,
      "dres": 5439,
      "dress": 5440,
      "dumb": 5441,
      "dedic": 5442,
      "emp": 5443,
      "gone.": 5444,
      "giving": 5445,
      "host": 5446,
      "house.": 5447,
      "ir": 5448,
      "ig": 5449,
      "i've": 5450,
      "imag": 5451,
      "joint": 5452,
      "kicked": 5453,
      "later.": 5454,
      "match": 5455,
      "nor": 5456,
      "oh,": 5457,
      "pra": 5458,
      "port": 5459,
      "push": 5460,
      "psy": 5461,
      "ris": 5462,
      "rum": 5463,
      "rare": 5464,
      "raw": 5465,
      "treat": 5466,
      "tie": 5467,
      "val": 5468,
      "water": 5469,
      "yep": 5470,
      "##ued": 5471,
      "##uil": 5472,
      "##ual.": 5473,
      "##sc": 5474,
      "##s\".": 5475,
      "##iar": 5476,
      "##cy": 5477,
      "##cure": 5478,
      "##country": 5479,
      "##n;": 5480,
      "##ner.": 5481,
      "##eff": 5482,
      "##a!": 5483,
      "##ald": 5484,
      "##akes": 5485,
      "##tit": 5486,
      "##ties.": 5487,
      "##pe.": 5488,
      "##pass": 5489,
      "##ws": 5490,
      "##wa": 5491,
      "##water": 5492,
      "##kes.": 5493,
      "##gy.": 5494,
      "##gia": 5495,
      "##ming.": 5496,
      "##ms,": 5497,
      "##miss": 5498,
      "##matic": 5499,
      "##how": 5500,
      "##yster": 5501,
      "##LY": 5502,
      "##LAR": 5503,
      "##brit": 5504,
      "##-g": 5505,
      "##-C": 5506,
      "##-R": 5507,
      "##-st": 5508,
      "##-the": 5509,
      "##6,": 5510,
      "##5,": 5511,
      "##z,": 5512,
      "##PER": 5513,
      "##just": 5514,
      "##xas": 5515,
      "##7,": 5516,
      "##2k": 5517,
      "##2,": 5518,
      "##UN": 5519,
      "##ULAR": 5520,
      "##erc": 5521,
      "##ons.": 5522,
      "##eake": 5523,
      "##reme": 5524,
      "##rely": 5525,
      "##requ": 5526,
      "##rection": 5527,
      "tor": 5528,
      "##ena": 5529,
      "##ening": 5530,
      "you\"": 5531,
      "##icide": 5532,
      "##esse": 5533,
      "##kel": 5534,
      "##ked.": 5535,
      "##ity,": 5536,
      "##ition.": 5537,
      "it'll": 5538,
      "##'s,": 5539,
      "issu": 5540,
      "##us.": 5541,
      "##ot,": 5542,
      "##oted": 5543,
      "ha,": 5544,
      "##oooo": 5545,
      "so!": 5546,
      "##lly,": 5547,
      "##ised": 5548,
      "dog.": 5549,
      "domin": 5550,
      "##ids": 5551,
      "##ided": 5552,
      "##ident": 5553,
      "alto": 5554,
      "star.": 5555,
      "What,": 5556,
      "##s...": 5557,
      "arent": 5558,
      "##um,": 5559,
      "##eremy": 5560,
      "##omes": 5561,
      "ange": 5562,
      "anthe": 5563,
      "another.": 5564,
      "barely": 5565,
      "##ellite": 5566,
      "really!": 5567,
      "listed": 5568,
      "fab": 5569,
      "fame": 5570,
      "face": 5571,
      "knowing": 5572,
      "heck": 5573,
      "##ither": 5574,
      "heart.": 5575,
      "some,": 5576,
      "somewhere": 5577,
      "somewhere.": 5578,
      "somehow": 5579,
      "##ounding": 5580,
      "notice": 5581,
      "neat": 5582,
      "plag": 5583,
      "band's": 5584,
      "##ions": 5585,
      "##ione": 5586,
      "##reath": 5587,
      "her!": 5588,
      "theirs,": 5589,
      "##inder": 5590,
      "You\".": 5591,
      "##ce,": 5592,
      "played.": 5593,
      "sounding.": 5594,
      "sounds,": 5595,
      "greats": 5596,
      "asking": 5597,
      "would,": 5598,
      "his.": 5599,
      "his?": 5600,
      "sing.": 5601,
      "sings.": 5602,
      "single.": 5603,
      "it..": 5604,
      "##road": 5605,
      "guy,": 5606,
      "##ula": 5607,
      "##ant?": 5608,
      "##ertified": 5609,
      "##artoon": 5610,
      "up,": 5611,
      "##urry": 5612,
      "intim": 5613,
      "intend": 5614,
      "pref": 5615,
      "press": 5616,
      "Hands": 5617,
      "##eaning": 5618,
      "##sody.": 5619,
      "more?": 5620,
      "semi": 5621,
      "whenever": 5622,
      "##ilar.": 5623,
      "##pend": 5624,
      "ages.": 5625,
      "aggressive": 5626,
      "rock/": 5627,
      "##ately,": 5628,
      "chose": 5629,
      "christ": 5630,
      "Soft": 5631,
      "by?": 5632,
      "right!": 5633,
      "old,": 5634,
      "oldies.": 5635,
      "manag": 5636,
      "worr": 5637,
      "still.": 5638,
      "years,": 5639,
      "##ored.": 5640,
      "will,": 5641,
      "willing": 5642,
      "##uren": 5643,
      "trouble": 5644,
      "##ians": 5645,
      "concert!": 5646,
      "##ify": 5647,
      "##ific": 5648,
      "No,I": 5649,
      "direction": 5650,
      "usual": 5651,
      "want,": 5652,
      "mostly.": 5653,
      "sale.": 5654,
      "back,": 5655,
      "Melan": 5656,
      "awful.": 5657,
      "awful,": 5658,
      "nobody": 5659,
      "ways.": 5660,
      "Believe": 5661,
      "##ipkn": 5662,
      "Ches": 5663,
      "Chip": 5664,
      "many!": 5665,
      "##ostak": 5666,
      "those,": 5667,
      "biggie": 5668,
      "overrated.": 5669,
      "hard.": 5670,
      "feel.": 5671,
      "relative": 5672,
      "compet": 5673,
      "can't.": 5674,
      "##rict": 5675,
      "##ared": 5676,
      "little,": 5677,
      "##ances": 5678,
      "##bably.": 5679,
      "Alan": 5680,
      "Always": 5681,
      "Alabam": 5682,
      "famous.": 5683,
      "##ealth": 5684,
      "##ia\"": 5685,
      "brothers": 5686,
      "blast": 5687,
      "Blood": 5688,
      "Sometim": 5689,
      "Somebody": 5690,
      "performing.": 5691,
      "##gether": 5692,
      "anything?": 5693,
      "come.": 5694,
      "comedy": 5695,
      "workout": 5696,
      "guitarists": 5697,
      "lyrical": 5698,
      "happy.": 5699,
      "##izon": 5700,
      "jazz?": 5701,
      "styles.": 5702,
      "unf": 5703,
      "unlike": 5704,
      "needed": 5705,
      "instrument?": 5706,
      "instrumentals": 5707,
      "quart": 5708,
      "quick": 5709,
      "musicians,": 5710,
      "##OULD": 5711,
      "spl": 5712,
      "spin": 5713,
      "spot": 5714,
      "Inc": 5715,
      "Inst": 5716,
      "buzz": 5717,
      "beats,": 5718,
      "Yea.": 5719,
      "reality": 5720,
      "realized": 5721,
      "Shostak": 5722,
      "hipster": 5723,
      "happened.": 5724,
      "today,": 5725,
      "releasing": 5726,
      "dancehall": 5727,
      "wonders": 5728,
      "wonderful": 5729,
      "Speak": 5730,
      "##plugged": 5731,
      "Clint": 5732,
      "Mars.": 5733,
      "Music.": 5734,
      "times,": 5735,
      "highly": 5736,
      "##athers": 5737,
      "\"Send": 5738,
      "Revival": 5739,
      "Arcade": 5740,
      "YOUR": 5741,
      "ideas": 5742,
      "use?": 5743,
      "released?": 5744,
      "heavy.": 5745,
      "yet,": 5746,
      "Pray": 5747,
      "CD's.": 5748,
      "dance.": 5749,
      "girl.": 5750,
      "girl,": 5751,
      "##man's": 5752,
      "movie,": 5753,
      "second.": 5754,
      "week?": 5755,
      "friends.": 5756,
      "colleg": 5757,
      "leg": 5758,
      "\"Th": 5759,
      "Love\"": 5760,
      "similar.": 5761,
      "##teen": 5762,
      "Metal.": 5763,
      "Swish": 5764,
      "Beatles,": 5765,
      "changes": 5766,
      "wow!": 5767,
      "prom": 5768,
      "ago?": 5769,
      "ago!": 5770,
      "picks": 5771,
      "##land,": 5772,
      "generally": 5773,
      "general.": 5774,
      "generation.": 5775,
      "interesting!": 5776,
      "##monade": 5777,
      "##ennis": 5778,
      "easier": 5779,
      "honestly.": 5780,
      "Stein": 5781,
      "set.": 5782,
      "tune.": 5783,
      "playlist?": 5784,
      "Definitely,": 5785,
      "disco": 5786,
      "version.": 5787,
      "considering": 5788,
      "Jazz?": 5789,
      "Jazz,": 5790,
      "##pective": 5791,
      "insane.": 5792,
      "SONGS.": 5793,
      "Aguil": 5794,
      "soundtrack?": 5795,
      "Please": 5796,
      "Everything": 5797,
      "Carry": 5798,
      "younger": 5799,
      "end.": 5800,
      "standing": 5801,
      "Country.": 5802,
      "##-pain": 5803,
      "surprising": 5804,
      "Great.": 5805,
      "##ique": 5806,
      "composer?": 5807,
      "Beyonce.": 5808,
      "2000s": 5809,
      "Jackson?": 5810,
      "Metallica,": 5811,
      "members?": 5812,
      "haha.": 5813,
      "happened?": 5814,
      "##EARS": 5815,
      "result": 5816,
      "choir": 5817,
      "perfectly": 5818,
      "WHERE": 5819,
      "winner.": 5820,
      "fast.": 5821,
      "minute": 5822,
      "typically": 5823,
      "express": 5824,
      "Nightw": 5825,
      "reminded": 5826,
      "Hop.": 5827,
      "Philly": 5828,
      "cars": 5829,
      "desp": 5830,
      "Chee": 5831,
      "night?": 5832,
      "running": 5833,
      "duh": 5834,
      "Prince's": 5835,
      "special?": 5836,
      "entirely": 5837,
      "piano,": 5838,
      "accord": 5839,
      "learn.": 5840,
      "post-punk": 5841,
      "forgotten": 5842,
      "channels": 5843,
      "kidding?": 5844,
      "Swift?": 5845,
      "Biggie": 5846,
      "Jimi": 5847,
      "WAIT": 5848,
      "Waits": 5849,
      "venues.": 5850,
      "Boals": 5851,
      "Bohemian": 5852,
      "Way\"": 5853,
      "label?": 5854,
      "Cole": 5855,
      "Coast": 5856,
      "Japan.": 5857,
      "##ovich": 5858,
      "Skib": 5859,
      "hair?": 5860,
      "story.": 5861,
      "story?": 5862,
      "inspir": 5863,
      "\"Cl": 5864,
      "Bach?": 5865,
      "Tool,": 5866,
      "energet": 5867,
      "melodies": 5868,
      "melodic.": 5869,
      "crying": 5870,
      "history": 5871,
      "yourself?": 5872,
      "product": 5873,
      "produce": 5874,
      "voices.": 5875,
      "##arently": 5876,
      "decades": 5877,
      "decades.": 5878,
      "seriously?": 5879,
      "Disney": 5880,
      "Texas": 5881,
      "park,": 5882,
      "relaxing": 5883,
      "book.": 5884,
      "room": 5885,
      "##OW,": 5886,
      "singles,": 5887,
      "variety.": 5888,
      "Seriously,": 5889,
      "coast": 5890,
      "opera": 5891,
      "noticed.": 5892,
      "commerci": 5893,
      "choice!": 5894,
      "Amazon": 5895,
      "annoying.": 5896,
      "swear": 5897,
      "theme.": 5898,
      "Crim": 5899,
      "nearly": 5900,
      "complic": 5901,
      "European": 5902,
      "Journe": 5903,
      "century.": 5904,
      "reflect": 5905,
      "Nice!": 5906,
      "falling": 5907,
      "joined": 5908,
      "Holy": 5909,
      "Korea": 5910,
      "Pandora": 5911,
      "Slash": 5912,
      "statement": 5913,
      "heartbreak": 5914,
      "combined": 5915,
      "computer.": 5916,
      "Mercy": 5917,
      "MTV.": 5918,
      "Stones,": 5919,
      "THEM.": 5920,
      "AMAZ": 5921,
      "Collins": 5922,
      "Circle": 5923,
      "Circle.": 5924,
      "Keys": 5925,
      "afro": 5926,
      "satellite": 5927,
      "wearing": 5928,
      "Strange": 5929,
      "performance?": 5930,
      "trainor": 5931,
      "business": 5932,
      "BAND.": 5933,
      "INTER": 5934,
      "poet": 5935,
      "downloaded": 5936,
      "yesterday": 5937,
      "tempo": 5938,
      "Monkeys": 5939,
      "disappointed": 5940,
      "Fighters.": 5941,
      "Morris": 5942,
      "SEE": 5943,
      "clearly": 5944,
      "Detroit.": 5945,
      "Vegas.": 5946,
      "Wonder": 5947,
      "key.": 5948,
      "key?": 5949,
      "normal": 5950,
      "normally": 5951,
      "##graw": 5952,
      "documentary": 5953,
      "unfortunately.": 5954,
      "Annie": 5955,
      "translate": 5956,
      "character": 5957,
      "recognize": 5958,
      "Favorite": 5959,
      "effort": 5960,
      "roots": 5961,
      "angst": 5962,
      "nowadays.": 5963,
      "Leonard": 5964,
      "grande": 5965,
      "##iversary": 5966,
      "DId": 5967,
      "Kirk": 5968,
      "Louis": 5969,
      "Sirius": 5970,
      "Wilson": 5971,
      "banj": 5972,
      "saxophone": 5973,
      "screaming": 5974,
      "contrib": 5975,
      "Temple": 5976,
      "Zepplin?": 5977,
      "audience.": 5978,
      "Perhaps": 5979,
      "Joshua": 5980,
      "sampl": 5981,
      "roommate": 5982,
      "Springsteen": 5983,
      "Attack": 5984,
      "Cleve": 5985,
      "DVD": 5986,
      "celebrit": 5987,
      "categor": 5988,
      "dubstep": 5989,
      "fifth": 5990,
      "peace": 5991,
      "vague": 5992,
      "golden": 5993,
      "Clearwater": 5994,
      "approach": 5995,
      "\"Who": 5996,
      "distinctive": 5997,
      "website": 5998,
      "associated": 5999,
      "##craft": 6000,
      "Birthday": 6001,
      "False?": 6002,
      "Hetfield": 6003,
      "LISTEN": 6004,
      "Natalie": 6005,
      "Police": 6006,
      "Rhapsody.": 6007,
      "Sremm": 6008,
      "TRY": 6009,
      "VIDE": 6010,
      "YEAH": 6011,
      "bizarre": 6012,
      "cords": 6013,
      "irrit": 6014,
      "ign": 6015,
      "rumors": 6016,
      "altogether": 6017,
      "plagiar": 6018,
      "christian": 6019,
      "relatively": 6020,
      "Shostakovich": 6021,
      "college.": 6022,
      "'G": 6023,
      "15": 6024,
      "AF": 6025,
      "Austr": 6026,
      "Bab": 6027,
      "CS": 6028,
      "CCR": 6029,
      "Div": 6030,
      "EN": 6031,
      "Fears": 6032,
      "Gam": 6033,
      "GRE": 6034,
      "Hor": 6035,
      "Hir": 6036,
      "HIM": 6037,
      "Iver": 6038,
      "July": 6039,
      "Karaoke": 6040,
      "Lad": 6041,
      "Lew": 6042,
      "Law": 6043,
      "Lana": 6044,
      "Mand": 6045,
      "Mag": 6046,
      "Made": 6047,
      "Million": 6048,
      "Nel": 6049,
      "Pick": 6050,
      "Port": 6051,
      "Ring": 6052,
      "Rhyth": 6053,
      "Tal": 6054,
      "Tanc": 6055,
      "Tyl": 6056,
      "Vir": 6057,
      "Vince": 6058,
      "Yng": 6059,
      "cle": 6060,
      "crit": 6061,
      "dj": 6062,
      "dirt": 6063,
      "ec": 6064,
      "flute": 6065,
      "gir": 6066,
      "hill": 6067,
      "jeal": 6068,
      "jog": 6069,
      "karaoke": 6070,
      "lose": 6071,
      "lady": 6072,
      "laugh": 6073,
      "pat": 6074,
      "pit": 6075,
      "pain": 6076,
      "rea": 6077,
      "ret": 6078,
      "retro": 6079,
      "romantic": 6080,
      "test": 6081,
      "ul": 6082,
      "us.": 6083,
      "walt": 6084,
      "##cing": 6085,
      "##cce": 6086,
      "##nes": 6087,
      "##ness.": 6088,
      "##ober": 6089,
      "##rid": 6090,
      "##aking": 6091,
      "##S?": 6092,
      "##line": 6093,
      "##p?": 6094,
      "##wie": 6095,
      "##-d": 6096,
      "##-P": 6097,
      "##-T": 6098,
      "##PR": 6099,
      "##AKE": 6100,
      "##jir": 6101,
      "##MA": 6102,
      "##HT": 6103,
      "##40": 6104,
      "##JOY": 6105,
      "##at?": 6106,
      "##atlo": 6107,
      "##ath,": 6108,
      "##in'": 6109,
      "##state": 6110,
      "##anish.": 6111,
      "##or.": 6112,
      "##ites": 6113,
      "##med.": 6114,
      "##hett": 6115,
      "##ayn": 6116,
      "##ay.": 6117,
      "hall": 6118,
      "##ley,": 6119,
      "##ears,": 6120,
      "stun": 6121,
      "##ets": 6122,
      "##etime": 6123,
      "white": 6124,
      "thinking.": 6125,
      "fake": 6126,
      "listen?": 6127,
      "necess": 6128,
      "##ion,": 6129,
      "succe": 6130,
      "You'd": 6131,
      "any?": 6132,
      "Doors": 6133,
      "He'll": 6134,
      "Help": 6135,
      "all!": 6136,
      "assu": 6137,
      "would.": 6138,
      "timeless": 6139,
      "conv": 6140,
      "##urs": 6141,
      "##urfin": 6142,
      "However,": 6143,
      "Haven't": 6144,
      "##aste": 6145,
      "we'll": 6146,
      "##way.": 6147,
      "##amond": 6148,
      "worn": 6149,
      "clos": 6150,
      "will!": 6151,
      "##aph": 6152,
      "trut": 6153,
      "triv": 6154,
      "acts": 6155,
      "##tern": 6156,
      "back?": 6157,
      "Meatlo": 6158,
      "Stap": 6159,
      "nois": 6160,
      "##ard,": 6161,
      "way?": 6162,
      "##ick.": 6163,
      "##icky": 6164,
      "actually!": 6165,
      "##onde": 6166,
      "Champ": 6167,
      "many,": 6168,
      "##olf": 6169,
      "Butch": 6170,
      "overl": 6171,
      "overall": 6172,
      "day!": 6173,
      "##ibu": 6174,
      "Bright": 6175,
      "family.": 6176,
      "##lfriend": 6177,
      "blink": 6178,
      "blonde": 6179,
      "Someone": 6180,
      "performer?": 6181,
      "Justice": 6182,
      "lyrics?": 6183,
      "favorites,": 6184,
      "guy's": 6185,
      "Trio": 6186,
      "text": 6187,
      "kids.": 6188,
      "leaked": 6189,
      "spell": 6190,
      "##son?": 6191,
      "release.": 6192,
      "Spotif": 6193,
      "Spanish.": 6194,
      "school,": 6195,
      "induct": 6196,
      "track?": 6197,
      "true!": 6198,
      "\"Surfin": 6199,
      "Remind": 6200,
      "Anth": 6201,
      "content": 6202,
      "person,": 6203,
      "danced": 6204,
      "seconds": 6205,
      "Flatt": 6206,
      "talks": 6207,
      "smith": 6208,
      "flaw": 6209,
      "##RED": 6210,
      "discuss": 6211,
      "Right!": 6212,
      "##ANK": 6213,
      "Exactly": 6214,
      "Everybody": 6215,
      "Carp": 6216,
      "impact": 6217,
      "mom.": 6218,
      "younger.": 6219,
      "Seven": 6220,
      "Seattle": 6221,
      "Great,": 6222,
      "broad": 6223,
      "drawn": 6224,
      "composers": 6225,
      "Twain": 6226,
      "ask?": 6227,
      "Hello": 6228,
      "90's.": 6229,
      "Pop.": 6230,
      "titles": 6231,
      "titled": 6232,
      "choic": 6233,
      "awards?": 6234,
      "roll.": 6235,
      "Indeed.": 6236,
      "jokes": 6237,
      "written.": 6238,
      "expert": 6239,
      "weekend,": 6240,
      "Absolutely": 6241,
      "Going": 6242,
      "Gojir": 6243,
      "\"And": 6244,
      "Nirvana.": 6245,
      "##hym": 6246,
      "duo": 6247,
      "edgy": 6248,
      "account": 6249,
      "suggest?": 6250,
      "suggestion": 6251,
      "busy": 6252,
      "finally": 6253,
      "werent": 6254,
      "Gotch": 6255,
      "other.": 6256,
      "\"Despac": 6257,
      "Bach.": 6258,
      "element": 6259,
      "hours.": 6260,
      "problem.": 6261,
      "relaxing.": 6262,
      "choice,": 6263,
      "Coldplay,": 6264,
      "Milk": 6265,
      "admit,": 6266,
      "Pepper's": 6267,
      "copy": 6268,
      "remeber": 6269,
      "Halse": 6270,
      "##aaaa": 6271,
      "argue": 6272,
      "Radiohead.": 6273,
      "Guess": 6274,
      "Huh,": 6275,
      "dollhouse": 6276,
      "introduced": 6277,
      "Angel": 6278,
      "Genesis?": 6279,
      "ballad": 6280,
      "chords": 6281,
      "billboard": 6282,
      "film": 6283,
      "hurts": 6284,
      "##IGHT": 6285,
      "neither": 6286,
      "examples": 6287,
      "Pilots.": 6288,
      "Lisa": 6289,
      "Wu-T": 6290,
      "Foxes": 6291,
      "picture": 6292,
      "present": 6293,
      "Soundgarden": 6294,
      "Opera": 6295,
      "material": 6296,
      "Zeppelin": 6297,
      "nominated": 6298,
      "theory,": 6299,
      "alive?": 6300,
      "chicken": 6301,
      "already.": 6302,
      "Basically": 6303,
      "Lindsey": 6304,
      "Ooh,": 6305,
      "average": 6306,
      "received": 6307,
      "couple.": 6308,
      "chiptune": 6309,
      "USA\"": 6310,
      "AFI": 6311,
      "Austral": 6312,
      "Baby": 6313,
      "Divis": 6314,
      "ENJOY": 6315,
      "GREAT": 6316,
      "Hirom": 6317,
      "Tancred": 6318,
      "Virg": 6319,
      "Yngwie": 6320,
      "eclect": 6321,
      "girlfriend": 6322,
      "ultim": 6323,
      "Meatloaf": 6324,
      "inducted": 6325,
      "flawless": 6326,
      "\"Despacito\"": 6327,
      "Wu-Tang": 6328,
      "\"r": 6329,
      "\"h": 6330,
      "\"V": 6331,
      "\"U": 6332,
      "\"old": 6333,
      "\"earn": 6334,
      "\"the": 6335,
      "$1": 6336,
      "$2": 6337,
      "'n": 6338,
      "'8": 6339,
      "'9": 6340,
      "'B": 6341,
      "'C": 6342,
      "'7": 6343,
      "'The": 6344,
      "1,": 6345,
      "12": 6346,
      "23": 6347,
      "50's": 6348,
      "60s.": 6349,
      "70s.": 6350,
      "AI": 6351,
      "Air": 6352,
      "Aal": 6353,
      "Ace": 6354,
      "Aud": 6355,
      "Acc": 6356,
      "Ain't": 6357,
      "Aldean": 6358,
      "BY": 6359,
      "Ban": 6360,
      "Boo": 6361,
      "Bart": 6362,
      "Book": 6363,
      "Bol": 6364,
      "Bare": 6365,
      "BUT": 6366,
      "BIG": 6367,
      "Benny": 6368,
      "Cal": 6369,
      "Cent": 6370,
      "Cra": 6371,
      "Cure": 6372,
      "Cap": 6373,
      "Cube": 6374,
      "Crow": 6375,
      "Curt": 6376,
      "Creed": 6377,
      "Cure,": 6378,
      "CHE": 6379,
      "Dun": 6380,
      "Dam": 6381,
      "Down": 6382,
      "Drum": 6383,
      "Danc": 6384,
      "Deep": 6385,
      "Diana": 6386,
      "Dude": 6387,
      "Double": 6388,
      "Deaf": 6389,
      "Ether": 6390,
      "Each": 6391,
      "Elect": 6392,
      "Fat": 6393,
      "Fam": 6394,
      "Four": 6395,
      "Funk": 6396,
      "Fine.": 6397,
      "Gay": 6398,
      "Goo": 6399,
      "Gill": 6400,
      "Gil": 6401,
      "Gonna": 6402,
      "Hat": 6403,
      "Hen": 6404,
      "Hate": 6405,
      "Hol": 6406,
      "Horn": 6407,
      "House": 6408,
      "HOW": 6409,
      "Human": 6410,
      "Hinder": 6411,
      "II": 6412,
      "Jan": 6413,
      "Jude": 6414,
      "Jeff": 6415,
      "Kra": 6416,
      "King.": 6417,
      "Kick": 6418,
      "Keep": 6419,
      "K-pop": 6420,
      "LP": 6421,
      "Lip": 6422,
      "Lost": 6423,
      "Lake": 6424,
      "Life": 6425,
      "MP": 6426,
      "Men": 6427,
      "Mom": 6428,
      "Mick": 6429,
      "Morm": 6430,
      "Mult": 6431,
      "MAN": 6432,
      "Milli": 6433,
      "MAY": 6434,
      "MCR": 6435,
      "Medic": 6436,
      "Modern": 6437,
      "NS": 6438,
      "Nove": 6439,
      "Noth": 6440,
      "Nine": 6441,
      "Nail": 6442,
      "Nik": 6443,
      "Os": 6444,
      "OD": 6445,
      "Oas": 6446,
      "Ooo": 6447,
      "Odd": 6448,
      "Pus": 6449,
      "Pay": 6450,
      "Pap": 6451,
      "Pian": 6452,
      "Pard": 6453,
      "Post": 6454,
      "Pac": 6455,
      "PRE": 6456,
      "Rus": 6457,
      "Ray": 6458,
      "Rum": 6459,
      "Rom": 6460,
      "Ross": 6461,
      "Russ": 6462,
      "Sg": 6463,
      "Sing": 6464,
      "Set": 6465,
      "Sur": 6466,
      "Sean": 6467,
      "Sep": 6468,
      "Since": 6469,
      "Sia": 6470,
      "Squ": 6471,
      "Sals": 6472,
      "Science": 6473,
      "Tit": 6474,
      "Tame": 6475,
      "Test": 6476,
      "Team": 6477,
      "Tony": 6478,
      "US.": 6479,
      "Vin": 6480,
      "Von": 6481,
      "Vid": 6482,
      "Wine": 6483,
      "Wake": 6484,
      "Wagn": 6485,
      "WOW,": 6486,
      "aday": 6487,
      "aft": 6488,
      "avo": 6489,
      "bed": 6490,
      "bear": 6491,
      "bur": 6492,
      "bod": 6493,
      "bud": 6494,
      "bold": 6495,
      "burn": 6496,
      "bump": 6497,
      "bomb": 6498,
      "cass": 6499,
      "core": 6500,
      "cap": 6501,
      "cac": 6502,
      "corn": 6503,
      "circ": 6504,
      "catal": 6505,
      "certified": 6506,
      "der": 6507,
      "det": 6508,
      "dyn": 6509,
      "double": 6510,
      "downt": 6511,
      "eth": 6512,
      "equ": 6513,
      "eyes": 6514,
      "fo": 6515,
      "fish": 6516,
      "fight.": 6517,
      "fift": 6518,
      "five.": 6519,
      "frequ": 6520,
      "ge": 6521,
      "gun": 6522,
      "gam": 6523,
      "goof": 6524,
      "hi": 6525,
      "hint": 6526,
      "hating": 6527,
      "hipp": 6528,
      "human": 6529,
      "jap": 6530,
      "king.": 6531,
      "land": 6532,
      "lake": 6533,
      "line.": 6534,
      "lamb": 6535,
      "lame.": 6536,
      "mc": 6537,
      "mother": 6538,
      "mmm": 6539,
      "mess.": 6540,
      "mount": 6541,
      "mumble": 6542,
      "mouth": 6543,
      "ner": 6544,
      "nove": 6545,
      "nah": 6546,
      "od": 6547,
      "oas": 6548,
      "pus": 6549,
      "pun": 6550,
      "pric": 6551,
      "peak": 6552,
      "pitch": 6553,
      "ru": 6554,
      "roy": 6555,
      "rated": 6556,
      "range.": 6557,
      "rhym": 6558,
      "site": 6559,
      "sil": 6560,
      "seal": 6561,
      "tv": 6562,
      "tab": 6563,
      "t-pain": 6564,
      "vac": 6565,
      "vary": 6566,
      "won.": 6567,
      "wave": 6568,
      "##uf": 6569,
      "##ux": 6570,
      "##ume": 6571,
      "##sell": 6572,
      "##iy": 6573,
      "##i's": 6574,
      "##cked": 6575,
      "##n,": 6576,
      "##night": 6577,
      "##nam": 6578,
      "##din": 6579,
      "##dom": 6580,
      "##dict": 6581,
      "##ving.": 6582,
      "##vy.": 6583,
      "##oque": 6584,
      "##rs": 6585,
      "##ri": 6586,
      "##rass": 6587,
      "##rated": 6588,
      "##ey.": 6589,
      "##efore": 6590,
      "##aim": 6591,
      "##aur": 6592,
      "##aire": 6593,
      "##tu": 6594,
      "##t?": 6595,
      "##tis": 6596,
      "##ton.": 6597,
      "##SP": 6598,
      "##lant": 6599,
      "##lave": 6600,
      "##ps": 6601,
      "##ping": 6602,
      "##pro": 6603,
      "##point": 6604,
      "##was": 6605,
      "##with": 6606,
      "##wsu": 6607,
      "##ko": 6608,
      "##gen": 6609,
      "##gue": 6610,
      "##gade": 6611,
      "##mat": 6612,
      "##ms.": 6613,
      "##mers": 6614,
      "##mau": 6615,
      "##mstr": 6616,
      "##.'": 6617,
      "##h!": 6618,
      "##hen": 6619,
      "##hear": 6620,
      "##hip": 6621,
      "##hod": 6622,
      "##ys": 6623,
      "##yd": 6624,
      "##ymn": 6625,
      "##N.": 6626,
      "##GE": 6627,
      "##E,": 6628,
      "##bal": 6629,
      "##ball": 6630,
      "##bour": 6631,
      "##bows": 6632,
      "##breed": 6633,
      "##!\"": 6634,
      "##,so": 6635,
      "##-J": 6636,
      "##-country": 6637,
      "##fj": 6638,
      "##fest": 6639,
      "##fits": 6640,
      "##''s": 6641,
      "##1.": 6642,
      "##ze": 6643,
      "##TTY": 6644,
      "##B.": 6645,
      "##BL": 6646,
      "##C.": 6647,
      "##VOR": 6648,
      "##30": 6649,
      "##2?": 6650,
      "##OL": 6651,
      "##O?": 6652,
      "##OK": 6653,
      "##UY": 6654,
      "##UR": 6655,
      "##4.": 6656,
      "thus": 6657,
      "third": 6658,
      "thirty": 6659,
      "##oul": 6660,
      "##ats": 6661,
      "##ating.": 6662,
      "##ato.": 6663,
      "##ative.": 6664,
      "##ered": 6665,
      "##eral": 6666,
      "##ervat": 6667,
      "##ining": 6668,
      "##ined": 6669,
      "##inson": 6670,
      "##iness.": 6671,
      "##eable": 6672,
      "##reck": 6673,
      "##star": 6674,
      "##stract": 6675,
      "topp": 6676,
      "towards": 6677,
      "##enomen": 6678,
      "lit.": 6679,
      "lives.": 6680,
      "##ics.": 6681,
      "##icial": 6682,
      "##esc": 6683,
      "##ess?": 6684,
      "##esha": 6685,
      "##or's": 6686,
      "##ors,": 6687,
      "##itz": 6688,
      "##it's": 6689,
      "##itud": 6690,
      "##itiz": 6691,
      "ite": 6692,
      "##mel": 6693,
      "##mell": 6694,
      "##ass,": 6695,
      "##asking": 6696,
      "isnt": 6697,
      "##otion.": 6698,
      "haun": 6699,
      "##eding": 6700,
      "##ong.": 6701,
      "##ongwrit": 6702,
      "be,": 6703,
      "belie": 6704,
      "beyon": 6705,
      "##arrow": 6706,
      "##arily": 6707,
      "##arrass": 6708,
      "dog": 6709,
      "do\"": 6710,
      "doing.": 6711,
      "dope": 6712,
      "dope.": 6713,
      "was!": 6714,
      "##ghan": 6715,
      "alike": 6716,
      "##irr": 6717,
      "##irate": 6718,
      "##irway": 6719,
      "##irming": 6720,
      "stood": 6721,
      "stra": 6722,
      "store": 6723,
      "stole": 6724,
      "stadium": 6725,
      "strict": 6726,
      "have!": 6727,
      "have,": 6728,
      "##lying": 6729,
      "##although": 6730,
      "##s..": 6731,
      "are!": 6732,
      "##um.": 6733,
      "##oodie": 6734,
      "anci": 6735,
      "baby": 6736,
      "It.": 6737,
      "It,": 6738,
      "##ella": 6739,
      "fail": 6740,
      "faster": 6741,
      "##ents": 6742,
      "##ent,": 6743,
      "##entic": 6744,
      "##entle": 6745,
      "listens": 6746,
      "knows,": 6747,
      "hey": 6748,
      "he'd": 6749,
      "##opol": 6750,
      "somebody": 6751,
      "abl": 6752,
      "abstract": 6753,
      "##send": 6754,
      "##illie": 6755,
      "album!": 6756,
      "too..": 6757,
      "plan.": 6758,
      "plane": 6759,
      "Ohio": 6760,
      "Ohhh": 6761,
      "##imme": 6762,
      "done?": 6763,
      "sun": 6764,
      "sued": 6765,
      "hers": 6766,
      "hers.": 6767,
      "hers?": 6768,
      "theirs.": 6769,
      "heard,": 6770,
      "##adel": 6771,
      "fru": 6772,
      "freaking": 6773,
      "meat": 6774,
      "You.\"": 6775,
      "favorite!": 6776,
      "Heat": 6777,
      "allow": 6778,
      "alley.": 6779,
      "##rage": 6780,
      "outdo": 6781,
      "##istol": 6782,
      "shot": 6783,
      "shocked": 6784,
      "##ief": 6785,
      "don't,": 6786,
      "Well...": 6787,
      "ass": 6788,
      "ash": 6789,
      "aside": 6790,
      "aspect": 6791,
      "his,": 6792,
      "goes.": 6793,
      "gosh": 6794,
      "##ime.": 6795,
      "or?": 6796,
      "sings,": 6797,
      "singing,": 6798,
      "Nobody": 6799,
      "arr": 6800,
      "new,": 6801,
      "news.": 6802,
      "mach": 6803,
      "map.": 6804,
      "magic": 6805,
      "##erson": 6806,
      "Yes,I": 6807,
      "##ants": 6808,
      "##ante": 6809,
      "##antas": 6810,
      "These": 6811,
      "Thrill": 6812,
      "##art,": 6813,
      "##artney": 6814,
      "prett": 6815,
      "predict": 6816,
      "who,": 6817,
      "Ha.": 6818,
      "Hair": 6819,
      "##eans": 6820,
      "##asty": 6821,
      "##astic.": 6822,
      "sevent": 6823,
      "section": 6824,
      "##one,": 6825,
      "develop": 6826,
      "had.": 6827,
      "feud": 6828,
      "ages": 6829,
      "much!": 6830,
      "rocking": 6831,
      "chea": 6832,
      "does!": 6833,
      "we've": 6834,
      "welcome": 6835,
      "comments": 6836,
      "there'll": 6837,
      "man!": 6838,
      "artists,": 6839,
      "##andle": 6840,
      "##andel": 6841,
      "clim": 6842,
      "class.": 6843,
      "Who,": 6844,
      "Whoa,": 6845,
      "years?": 6846,
      "sure?": 6847,
      "##othing.": 6848,
      "concern": 6849,
      "exerc": 6850,
      "trio": 6851,
      "tripp": 6852,
      "tromb": 6853,
      "truth": 6854,
      "how?": 6855,
      "actress": 6856,
      "now!": 6857,
      "##ide,": 6858,
      "should,": 6859,
      "well-": 6860,
      "volu": 6861,
      "grow": 6862,
      "ground": 6863,
      "##nel": 6864,
      "saved": 6865,
      "##inez": 6866,
      "everyday": 6867,
      "everybody": 6868,
      "everywhere.": 6869,
      "Me,": 6870,
      "Memph": 6871,
      "Megan": 6872,
      "Meghan": 6873,
      "##ager": 6874,
      "##agger": 6875,
      "talked": 6876,
      "never.": 6877,
      "few,": 6878,
      "lasts": 6879,
      "##anges": 6880,
      "##angnam": 6881,
      "Been": 6882,
      "Beiber": 6883,
      "Chains": 6884,
      "encom": 6885,
      "##fferent": 6886,
      "lived": 6887,
      "live!": 6888,
      "classic!": 6889,
      "classic,": 6890,
      "classics.": 6891,
      "big.": 6892,
      "big,": 6893,
      "bigger": 6894,
      "same?": 6895,
      "same!": 6896,
      "remember?": 6897,
      "groups?": 6898,
      "overplay": 6899,
      "harsh": 6900,
      "start.": 6901,
      "starting": 6902,
      "relig": 6903,
      "compil": 6904,
      "##...what": 6905,
      "##ording": 6906,
      "guessing": 6907,
      "##els": 6908,
      "##elic": 6909,
      "##eless": 6910,
      "##acy": 6911,
      "hit,": 6912,
      "saw?": 6913,
      "seen.": 6914,
      "parts": 6915,
      "parties.": 6916,
      "Brothers": 6917,
      "look.": 6918,
      "around!": 6919,
      "##ancis": 6920,
      "Album": 6921,
      "Alison": 6922,
      "##lful": 6923,
      "popular,": 6924,
      "##hape": 6925,
      "brook": 6926,
      "brother": 6927,
      "tours.": 6928,
      "blame": 6929,
      "blah": 6930,
      "blues,": 6931,
      "##iva": 6932,
      "##ivity": 6933,
      "Blurry": 6934,
      "perform.": 6935,
      "perform?": 6936,
      "elvis": 6937,
      "anything,": 6938,
      "moving.": 6939,
      "##uddy": 6940,
      "Neigh": 6941,
      "Neko": 6942,
      "talents.": 6943,
      "Devin": 6944,
      "hop?": 6945,
      "##ization.": 6946,
      "off?": 6947,
      "off,": 6948,
      "offense.": 6949,
      "guys?": 6950,
      "Tribb": 6951,
      "##ubber": 6952,
      "unus": 6953,
      "unplugged": 6954,
      "better!": 6955,
      "instrument,": 6956,
      "instruments?": 6957,
      "thrash": 6958,
      "kid,": 6959,
      "finding": 6960,
      "screen": 6961,
      "spir": 6962,
      "spent": 6963,
      "bet.": 6964,
      "Ins": 6965,
      "Inch": 6966,
      "agree!": 6967,
      "adele": 6968,
      "##ugah": 6969,
      "##anks": 6970,
      "both!": 6971,
      "bothers": 6972,
      "##cals": 6973,
      "##ment,": 6974,
      "All,": 6975,
      "Shore": 6976,
      "hipster.": 6977,
      "happening": 6978,
      "wherever": 6979,
      "releases": 6980,
      "ears.": 6981,
      "record,": 6982,
      "##ending": 6983,
      "Cloud": 6984,
      "Marian": 6985,
      "apparently": 6986,
      "tell.": 6987,
      "perspective": 6988,
      "cover.": 6989,
      "cover?": 6990,
      "maybe,": 6991,
      "schools": 6992,
      "tracks,": 6993,
      "America?": 6994,
      "America's": 6995,
      "Man.": 6996,
      "catchy,": 6997,
      "bad,": 6998,
      "##medi": 6999,
      "\"St": 7000,
      "\"Sta": 7001,
      "\"Shape": 7002,
      "started?": 7003,
      "Revo": 7004,
      "basic.": 7005,
      "Art": 7006,
      "Arizon": 7007,
      "Armstr": 7008,
      "top.": 7009,
      "stations.": 7010,
      "stations?": 7011,
      "okay?": 7012,
      "surf": 7013,
      "content.": 7014,
      "contract": 7015,
      "contains": 7016,
      "idiot": 7017,
      "wondering": 7018,
      "mix.": 7019,
      "recommendation.": 7020,
      "Princ": 7021,
      "drummers": 7022,
      "rappers.": 7023,
      "CDs.": 7024,
      "decided": 7025,
      "personally": 7026,
      "personally.": 7027,
      "dancer": 7028,
      "girl?": 7029,
      "Lettu": 7030,
      "Progressive": 7031,
      "tones": 7032,
      "style?": 7033,
      "Swed": 7034,
      "Swish.": 7035,
      "smo": 7036,
      "tail": 7037,
      "taken": 7038,
      "##struck": 7039,
      "flowing": 7040,
      "wow.": 7041,
      "##phist": 7042,
      "##phones": 7043,
      "prop": 7044,
      "prim": 7045,
      "proud": 7046,
      "life,": 7047,
      "lifetime": 7048,
      "regret": 7049,
      "together,": 7050,
      "term": 7051,
      "phase": 7052,
      "phenomen": 7053,
      "generic": 7054,
      "generations": 7055,
      "lawsu": 7056,
      "##000": 7057,
      "enough,": 7058,
      "ideas.": 7059,
      "easy,": 7060,
      "easily": 7061,
      "honest,": 7062,
      "see..": 7063,
      "see...": 7064,
      "tunes.": 7065,
      "support": 7066,
      "everyone!": 7067,
      "Definitely!": 7068,
      "boyband": 7069,
      "##vented": 7070,
      "point,": 7071,
      "turns": 7072,
      "turning": 7073,
      "folks": 7074,
      "trap": 7075,
      "funny,": 7076,
      "2012.": 7077,
      "2016.": 7078,
      "Place": 7079,
      "Right?": 7080,
      "senior": 7081,
      "England.": 7082,
      "moment.": 7083,
      "soulful": 7084,
      "young,": 7085,
      "HAHA": 7086,
      "Second": 7087,
      "Seatt": 7088,
      "ended": 7089,
      "mariah": 7090,
      "money,": 7091,
      "True!": 7092,
      "surprised.": 7093,
      "indie-pop": 7094,
      "bro.": 7095,
      "\"Imag": 7096,
      "\"It's": 7097,
      "Atlant": 7098,
      "far?": 7099,
      "far,": 7100,
      "##why?": 7101,
      "haha!": 7102,
      "\"Before": 7103,
      "##irts": 7104,
      "catchy!": 7105,
      "crazy!": 7106,
      "Pop,": 7107,
      "TOO.": 7108,
      "reser": 7109,
      "reson": 7110,
      "resume": 7111,
      "sums": 7112,
      "summertime": 7113,
      "ONLY": 7114,
      "fourth": 7115,
      "tastes": 7116,
      "perfect.": 7117,
      "Inter": 7118,
      "WHEN": 7119,
      "jam.": 7120,
      "winning": 7121,
      "winner": 7122,
      "What?!": 7123,
      "award.": 7124,
      "smaller": 7125,
      "electronic,": 7126,
      "tough.": 7127,
      "Kendrick's": 7128,
      "joke": 7129,
      "Within": 7130,
      "Without": 7131,
      "messing": 7132,
      "messages": 7133,
      "perc": 7134,
      "permiss": 7135,
      "Absolutely,": 7136,
      "God.": 7137,
      "Legend": 7138,
      "Lemonade": 7139,
      "Perry,": 7140,
      "Sufj": 7141,
      "auth": 7142,
      "incredibly": 7143,
      "\"An": 7144,
      "\"What's": 7145,
      "cd?": 7146,
      "##!!!": 7147,
      "##lton?": 7148,
      "Beyonce,": 7149,
      "\"He": 7150,
      "\"Hymn": 7151,
      "LOOK": 7152,
      "Nirvana?": 7153,
      "running.": 7154,
      "##chedelic": 7155,
      "festivals": 7156,
      "festivals?": 7157,
      "Deadmau": 7158,
      "Usher.": 7159,
      "##THING": 7160,
      "Prince,": 7161,
      "suppose.": 7162,
      "Ahh": 7163,
      "Ahh,": 7164,
      "alot.": 7165,
      "thanks!": 7166,
      "movies,": 7167,
      "deep.": 7168,
      "era?": 7169,
      "scene?": 7170,
      "Merle": 7171,
      "borrow": 7172,
      "##iety": 7173,
      "hand.": 7174,
      "handle": 7175,
      "handful": 7176,
      "extent": 7177,
      "extreme": 7178,
      "transfer": 7179,
      "transition": 7180,
      "wrong.": 7181,
      "wrong,": 7182,
      "Yup,I": 7183,
      "finished": 7184,
      "grab": 7185,
      "subs": 7186,
      "Boy.": 7187,
      "Boond": 7188,
      "##iverse.": 7189,
      "##vides": 7190,
      "Interesting": 7191,
      "labels": 7192,
      "trumpet?": 7193,
      "trumpet,": 7194,
      "CAN'T": 7195,
      "Day.": 7196,
      "Glad": 7197,
      "Glenn": 7198,
      "influence.": 7199,
      "bluegrass.": 7200,
      "supposedly": 7201,
      "Coch": 7202,
      "Minecraft": 7203,
      "Floyd,": 7204,
      "Band.": 7205,
      "Band?": 7206,
      "GOSP": 7207,
      "Sky": 7208,
      "digging": 7209,
      "others,": 7210,
      "ska": 7211,
      "English,": 7212,
      "\"Let": 7213,
      "\"Love": 7214,
      "United": 7215,
      "depression": 7216,
      "funk.": 7217,
      "funky": 7218,
      "Bowie.": 7219,
      "Dr.": 7220,
      "Drug": 7221,
      "Group": 7222,
      "explore": 7223,
      "1992.": 7224,
      "1999.": 7225,
      "Heard": 7226,
      "Rap?": 7227,
      "##ailable": 7228,
      "harmony": 7229,
      "harmonic": 7230,
      "harmonies": 7231,
      "Disco": 7232,
      "Vanilli": 7233,
      "across": 7234,
      "filled": 7235,
      "mathem": 7236,
      "success.": 7237,
      "Billie": 7238,
      "Girls,": 7239,
      "Hotel": 7240,
      "corpor": 7241,
      "distort": 7242,
      "Adams": 7243,
      "Grande,": 7244,
      "soul,": 7245,
      "\"Red": 7246,
      "70's.": 7247,
      "Fire.": 7248,
      "##ield.": 7249,
      "Grammy's": 7250,
      "incredible!": 7251,
      "Amazon.": 7252,
      "Danie": 7253,
      "Danny": 7254,
      "SHE": 7255,
      "SHOULD": 7256,
      "fits": 7257,
      "loud,": 7258,
      "possible": 7259,
      "possibly": 7260,
      "stars": 7261,
      "diverse.": 7262,
      "MUSIC.": 7263,
      "Miles": 7264,
      "Sweet,": 7265,
      "Weekend": 7266,
      "doubt.": 7267,
      "fantastic.": 7268,
      "millions": 7269,
      "snob": 7270,
      "songwriter.": 7271,
      "project.": 7272,
      "admitted": 7273,
      "Madonna,": 7274,
      "Europe.": 7275,
      "Falling": 7276,
      "century": 7277,
      "refres": 7278,
      "expect.": 7279,
      "expected.": 7280,
      "profess": 7281,
      "bringing": 7282,
      "speaks": 7283,
      "sense,": 7284,
      "experimenting": 7285,
      "Underwood.": 7286,
      "Alec": 7287,
      "Conf": 7288,
      "dad.": 7289,
      "season?": 7290,
      "interp": 7291,
      "teenag": 7292,
      "collection": 7293,
      "Totally.": 7294,
      "cost?": 7295,
      "hanging": 7296,
      "##print": 7297,
      "answer.": 7298,
      "hearts": 7299,
      "sexy": 7300,
      "seats.": 7301,
      "combines": 7302,
      "appreciated": 7303,
      "describ": 7304,
      "Mercury": 7305,
      "LIKE?": 7306,
      "Honestly": 7307,
      "Simon": 7308,
      "Simple": 7309,
      "##clos": 7310,
      "##ophony": 7311,
      "define.": 7312,
      "##iption": 7313,
      "THEM?": 7314,
      "2017.": 7315,
      "Cyrus,": 7316,
      "Minaj,": 7317,
      "meant.": 7318,
      "\"New": 7319,
      "COOL": 7320,
      "Collins,": 7321,
      "rascals": 7322,
      "sorry.": 7323,
      "Young.": 7324,
      "1989": 7325,
      "pieces.": 7326,
      "business,": 7327,
      "182.": 7328,
      "Ella": 7329,
      "Huh.": 7330,
      "HER.": 7331,
      "Minogue": 7332,
      "Malibu": 7333,
      "Sorry,": 7334,
      "Travis": 7335,
      "fingers": 7336,
      "##AY?": 7337,
      "common.": 7338,
      "Genesis": 7339,
      "ABC": 7340,
      "Roses,": 7341,
      "Youtube.": 7342,
      "birthday.": 7343,
      "deal.": 7344,
      "holds": 7345,
      "##iiii": 7346,
      "steps": 7347,
      "Bruford": 7348,
      "brilliant.": 7349,
      "instead.": 7350,
      "consistently": 7351,
      "disappointed.": 7352,
      "Baroque": 7353,
      "FEW": 7354,
      "Heads,": 7355,
      "Molly": 7356,
      "brain": 7357,
      "hurt.": 7358,
      "neither.": 7359,
      "example.": 7360,
      "Idol.": 7361,
      "SOUNDS": 7362,
      "Casino": 7363,
      "Detroit": 7364,
      "afford": 7365,
      "affair": 7366,
      "education": 7367,
      "education.": 7368,
      "gangster": 7369,
      "garbage.": 7370,
      "limited": 7371,
      "documentary.": 7372,
      "Thunderstruck": 7373,
      "##hahahaha": 7374,
      "unfortunately": 7375,
      "streaming": 7376,
      "Anniversary": 7377,
      "traveling": 7378,
      "Plus,": 7379,
      "GOOD.": 7380,
      "skills.": 7381,
      "Cornell?": 7382,
      "recogniz": 7383,
      "Different": 7384,
      "Schwag": 7385,
      "pictures": 7386,
      "animal": 7387,
      "church.": 7388,
      "Brooks.": 7389,
      "surrounded": 7390,
      "Stevens": 7391,
      "important": 7392,
      "Eagles.": 7393,
      "Faith": 7394,
      "Garden": 7395,
      "Massive": 7396,
      "Summer": 7397,
      "Summertime": 7398,
      "Sandman": 7399,
      "Woman": 7400,
      "Yann": 7401,
      "Yanke": 7402,
      "epic": 7403,
      "tea.": 7404,
      "concept.": 7405,
      "deliver": 7406,
      "Chicks,": 7407,
      "Awards": 7408,
      "SONGS,": 7409,
      "impressive.": 7410,
      "eventually.": 7411,
      "motivated": 7412,
      "Williams": 7413,
      "Williams,": 7414,
      "material.": 7415,
      "nuts.": 7416,
      "pumped": 7417,
      "Haggard": 7418,
      "groove": 7419,
      "\"love": 7420,
      "Evanesc": 7421,
      "FAMIL": 7422,
      "FAVOR": 7423,
      "Hardcore": 7424,
      "POPULAR": 7425,
      "Shape": 7426,
      "oppos": 7427,
      "opport": 7428,
      "occasionally.": 7429,
      "r&b,": 7430,
      "symphon": 7431,
      "reunion": 7432,
      "places": 7433,
      "places.": 7434,
      "suprised": 7435,
      "stupid": 7436,
      "stupid.": 7437,
      "tradition": 7438,
      "nostalgia": 7439,
      "continued": 7440,
      "obnoxious": 7441,
      "obnoxious.": 7442,
      "insanely": 7443,
      "cascada": 7444,
      "Paradise": 7445,
      "Poison.": 7446,
      "Poison,": 7447,
      "Avenue": 7448,
      "Party": 7449,
      "immedi": 7450,
      "virtual": 7451,
      "throwaway": 7452,
      "McCartney": 7453,
      "ALSO.": 7454,
      "Empire": 7455,
      "Frozen": 7456,
      "KISS.": 7457,
      "Luis": 7458,
      "Middle": 7459,
      "Me.\"": 7460,
      "Nickel": 7461,
      "STORE": 7462,
      "Townsend": 7463,
      "Witness": 7464,
      "embarrass": 7465,
      "fusion": 7466,
      "juic": 7467,
      "miles": 7468,
      "pinky": 7469,
      "pants.": 7470,
      "ragga": 7471,
      "susp": 7472,
      "whether": 7473,
      "wife.": 7474,
      "##-metal": 7475,
      "theaters": 7476,
      "issues": 7477,
      "innov": 7478,
      "involved": 7479,
      "anxiety": 7480,
      "all-time": 7481,
      "atmosp": 7482,
      "intense,": 7483,
      "twangy": 7484,
      "phras": 7485,
      "graphic": 7486,
      "Harrison": 7487,
      "eightees.": 7488,
      "Freddie": 7489,
      "raspy": 7490,
      "Computer.": 7491,
      "dollars": 7492,
      "##-182": 7493,
      "Guns": 7494,
      "Kylie": 7495,
      "merch": 7496,
      "##ioslave": 7497,
      "belong": 7498,
      "Hopefully": 7499,
      "Dragons": 7500,
      "Mastodon": 7501,
      "August": 7502,
      "Enter": 7503,
      "July.": 7504,
      "Lonely": 7505,
      "Naugah": 7506,
      "Ugh,": 7507,
      "available": 7508,
      "color": 7509,
      "praise": 7510,
      "##n;t": 7511,
      "##-C-H": 7512,
      "##-Rock": 7513,
      "torn": 7514,
      "##roadway": 7515,
      "prefer.": 7516,
      "pressure": 7517,
      "Melanie": 7518,
      "Sometimes,": 7519,
      "unfair": 7520,
      "Aguilera": 7521,
      "accordion": 7522,
      "energetic": 7523,
      "AMAZING.": 7524,
      "INTEREST": 7525,
      "angsty": 7526,
      "Leonardo": 7527,
      "banjo": 7528,
      "Cleveland": 7529,
      "vaguely": 7530,
      "Sremmur": 7531,
      "'Gangnam": 7532,
      "Champion": 7533,
      "##ANKS": 7534,
      "$200": 7535,
      "'Ch": 7536,
      "'70s.": 7537,
      "AI.": 7538,
      "Aaliy": 7539,
      "Audioslave": 7540,
      "According": 7541,
      "Bartok": 7542,
      "Bareill": 7543,
      "Craz": 7544,
      "Curtis": 7545,
      "CHECK": 7546,
      "Hatebreed": 7547,
      "Nothing,": 7548,
      "Puscif": 7549,
      "PRETTY": 7550,
      "Sgt.": 7551,
      "Septe": 7552,
      "after.": 7553,
      "cacophony": 7554,
      "dynam": 7555,
      "japan": 7556,
      "lambert": 7557,
      "mcgraw": 7558,
      "odd.": 7559,
      "##itude.": 7560,
      "haunting.": 7561,
      "beyonce": 7562,
      "ancient": 7563,
      "outdoor": 7564,
      "##andelier.": 7565,
      "volume": 7566,
      "encompass": 7567,
      "Tribbett": 7568,
      "\"Stairway": 7569,
      "Deadmau5": 7570,
      "GOSPEL": 7571,
      "corporate": 7572,
      "'T": 7573,
      "11": 7574,
      "14": 7575,
      "25": 7576,
      "36": 7577,
      "Az": 7578,
      "Amy": 7579,
      "Bear": 7580,
      "Bet": 7581,
      "Bond": 7582,
      "D.": 7583,
      "Dove": 7584,
      "Dist": 7585,
      "Dub": 7586,
      "Dirt": 7587,
      "EP": 7588,
      "End": 7589,
      "Fest": 7590,
      "Fever": 7591,
      "G?": 7592,
      "Gar": 7593,
      "Gib": 7594,
      "Han": 7595,
      "Hue": 7596,
      "Ing": 7597,
      "Imp": 7598,
      "J.": 7599,
      "Jes": 7600,
      "Joy": 7601,
      "Jud": 7602,
      "JPOP": 7603,
      "Kath": 7604,
      "Kane": 7605,
      "KPOP": 7606,
      "Lo": 7607,
      "Lum": 7608,
      "Lif": 7609,
      "Live.": 7610,
      "Mond": 7611,
      "Muse": 7612,
      "Make": 7613,
      "Nat": 7614,
      "Nett": 7615,
      "NPR": 7616,
      "Oc": 7617,
      "Pow": 7618,
      "Porn": 7619,
      "Pett": 7620,
      "Pachel": 7621,
      "Ro": 7622,
      "Ree": 7623,
      "Rapp": 7624,
      "Sist": 7625,
      "Sull": 7626,
      "Spect": 7627,
      "Syl": 7628,
      "TL": 7629,
      "Ton": 7630,
      "Tour": 7631,
      "Talk": 7632,
      "UB": 7633,
      "Upt": 7634,
      "Wat": 7635,
      "Wiz": 7636,
      "Wolf": 7637,
      "XM": 7638,
      "Yach": 7639,
      "ZZ": 7640,
      "Zayn": 7641,
      "batt": 7642,
      "battle": 7643,
      "cook": 7644,
      "crack": 7645,
      "camp": 7646,
      "cuss": 7647,
      "candy": 7648,
      "da": 7649,
      "dent": 7650,
      "dry": 7651,
      "dates.": 7652,
      "east": 7653,
      "eye": 7654,
      "fear": 7655,
      "fell": 7656,
      "google": 7657,
      "iP": 7658,
      "ive": 7659,
      "imm": 7660,
      "katy": 7661,
      "k-pop": 7662,
      "los": 7663,
      "lover": 7664,
      "loop": 7665,
      "men": 7666,
      "mis": 7667,
      "ment": 7668,
      "morning": 7669,
      "nicky": 7670,
      "oct": 7671,
      "pur": 7672,
      "rate": 7673,
      "reach": 7674,
      "till": 7675,
      "tied": 7676,
      "van": 7677,
      "wake": 7678,
      "xm": 7679,
      "##uo": 7680,
      "##upp": 7681,
      "##sl": 7682,
      "##cur": 7683,
      "##n?": 7684,
      "##nie": 7685,
      "##d?": 7686,
      "##vere": 7687,
      "##vine": 7688,
      "##oen": 7689,
      "##oy.": 7690,
      "##aly": 7691,
      "##avor": 7692,
      "##l?": 7693,
      "##ler": 7694,
      "##pill": 7695,
      "##wing": 7696,
      "##wind": 7697,
      "##ker": 7698,
      "##mory": 7699,
      "##hun": 7700,
      "##bine": 7701,
      "##box": 7702,
      "##-l": 7703,
      "##'?": 7704,
      "##RO": 7705,
      "##OM": 7706,
      "##WAY": 7707,
      "##/s": 7708,
      "threw": 7709,
      "##erhun": 7710,
      "##east": 7711,
      "##rest": 7712,
      "##sta": 7713,
      "##stin": 7714,
      "##storm": 7715,
      "##icult": 7716,
      "##anz": 7717,
      "##angest": 7718,
      "##itive": 7719,
      "##ited.": 7720,
      "##ities.": 7721,
      "##ask": 7722,
      "##as?": 7723,
      "##us?": 7724,
      "beef": 7725,
      "musically": 7726,
      "##oo.": 7727,
      "##ario.": 7728,
      "was?": 7729,
      "##leen": 7730,
      "##etition": 7731,
      "are?": 7732,
      "##ompl": 7733,
      "##cha": 7734,
      "faith": 7735,
      "for.": 7736,
      "above": 7737,
      "note": 7738,
      "rebell": 7739,
      "Yes?": 7740,
      "what.": 7741,
      "justin": 7742,
      "sup": 7743,
      "suite": 7744,
      "##inda": 7745,
      "memory": 7746,
      "Dolly": 7747,
      "Heck": 7748,
      "##ff.": 7749,
      "##fficult": 7750,
      "##ry,": 7751,
      "##raina": 7752,
      "sound?": 7753,
      "##ist,": 7754,
      "##ists?": 7755,
      "lot?": 7756,
      "Then,": 7757,
      "intense.": 7758,
      "##ilow": 7759,
      "combine": 7760,
      "still,": 7761,
      "exha": 7762,
      "how's": 7763,
      "however,": 7764,
      "action": 7765,
      "difficult": 7766,
      "well!": 7767,
      "most,": 7768,
      "##ney.": 7769,
      "backstreet": 7770,
      "Stop": 7771,
      "Start": 7772,
      "Stadium": 7773,
      "show!": 7774,
      "Chained": 7775,
      "classics,": 7776,
      "chees": 7777,
      "checked": 7778,
      "##aked": 7779,
      "##ake,": 7780,
      "##ous!": 7781,
      "remembered": 7782,
      "We've": 7783,
      "Welcome": 7784,
      "over.": 7785,
      "##ish?": 7786,
      "##les'": 7787,
      "check.": 7788,
      "start,": 7789,
      "##ibil": 7790,
      "##aren": 7791,
      "##aced": 7792,
      "hit?": 7793,
      "something,": 7794,
      "seen?": 7795,
      "hardly": 7796,
      "tours?": 7797,
      "bland": 7798,
      "Depe": 7799,
      "Deerhun": 7800,
      "Destin": 7801,
      "comeback": 7802,
      "work,": 7803,
      "##ting,": 7804,
      "such.": 7805,
      "offens": 7806,
      "Anyways": 7807,
      "enjoying": 7808,
      "quite.": 7809,
      "##overed": 7810,
      "musicians?": 7811,
      "scales": 7812,
      "span": 7813,
      "spotif": 7814,
      "##son's": 7815,
      "beat,": 7816,
      "diss": 7817,
      "##liest": 7818,
      "Good!": 7819,
      "##irling": 7820,
      "strangest": 7821,
      "Shins,": 7822,
      "earliest": 7823,
      "doesn't.": 7824,
      "##ended": 7825,
      "Mariah": 7826,
      "applic": 7827,
      "appeared": 7828,
      "Cool!": 7829,
      "least!": 7830,
      "school?": 7831,
      "Music,": 7832,
      "again,": 7833,
      "Manilow": 7834,
      "higher": 7835,
      "underwood": 7836,
      "underground": 7837,
      "##athy": 7838,
      "lead?": 7839,
      "\"Sweet": 7840,
      "Rey": 7841,
      "##olds": 7842,
      "recommended": 7843,
      "rappers?": 7844,
      "Lets": 7845,
      "##ale,": 7846,
      "##aterpill": 7847,
      "tonight.": 7848,
      "Once": 7849,
      "Metal?": 7850,
      "creating": 7851,
      "Beatles!": 7852,
      "flavor": 7853,
      "known.": 7854,
      "pick,": 7855,
      "general,": 7856,
      "idea,": 7857,
      "technical": 7858,
      "tickets.": 7859,
      "discograph": 7860,
      "head,": 7861,
      "understand,": 7862,
      "##ception": 7863,
      "SONG.": 7864,
      "keeps": 7865,
      "keeping": 7866,
      "tragic.": 7867,
      "funny!": 7868,
      "2015.": 7869,
      "Engage": 7870,
      "imposs": 7871,
      "maroon": 7872,
      "surprise.": 7873,
      "Boys,": 7874,
      "broken": 7875,
      "composers?": 7876,
      "2008.": 7877,
      "2000's.": 7878,
      "month?": 7879,
      "\"I'm": 7880,
      "##ctions": 7881,
      "Intern": 7882,
      "exciting.": 7883,
      "produces": 7884,
      "type.": 7885,
      "typical": 7886,
      "Daft": 7887,
      "Phoen": 7888,
      "cd's": 7889,
      "Beyonce's": 7890,
      "nights": 7891,
      "Geoff": 7892,
      "anyway.": 7893,
      "anyway?": 7894,
      "movies?": 7895,
      "accompl": 7896,
      "killer": 7897,
      "posted": 7898,
      "McL": 7899,
      "extended": 7900,
      "Swift.": 7901,
      "finale": 7902,
      "were.": 7903,
      "shame.": 7904,
      "changed?": 7905,
      "Glory": 7906,
      "Adele's": 7907,
      "Asia": 7908,
      "women": 7909,
      "stories.": 7910,
      "depressed": 7911,
      "##bino": 7912,
      "Harry": 7913,
      "staying": 7914,
      "Smith?": 7915,
      "park.": 7916,
      "recommendations.": 7917,
      "Lorde?": 7918,
      "Wars": 7919,
      "Warped": 7920,
      "fired.": 7921,
      "nineties?": 7922,
      "##switch": 7923,
      "legendary": 7924,
      "Adam's": 7925,
      "Grande.": 7926,
      "signatures": 7927,
      "Scene": 7928,
      "orchestra,": 7929,
      "Cash?": 7930,
      "Soul": 7931,
      "Sweet!": 7932,
      "Weez": 7933,
      "halftime": 7934,
      "project?": 7935,
      "strange,": 7936,
      "DJ?": 7937,
      "Sara": 7938,
      "names?": 7939,
      "dude,": 7940,
      "##ukebox": 7941,
      "sex.": 7942,
      "horror": 7943,
      "horrible.": 7944,
      "Halen,": 7945,
      "self-": 7946,
      "defining": 7947,
      "obscure": 7948,
      "summer?": 7949,
      "Compan": 7950,
      "182": 7951,
      "Malinda": 7952,
      "community": 7953,
      "Angeles": 7954,
      "ballet": 7955,
      "chills.": 7956,
      "FEAT": 7957,
      "Kids": 7958,
      "Moz": 7959,
      "Riot": 7960,
      "Pilots,": 7961,
      "FROM": 7962,
      "Springfield": 7963,
      "remixes": 7964,
      "riffs": 7965,
      "Calling": 7966,
      "Diamond": 7967,
      "public": 7968,
      "Transl": 7969,
      "Marsal": 7970,
      "##-fi": 7971,
      "western": 7972,
      "attended": 7973,
      "Mac,": 7974,
      "Childish": 7975,
      "herself.": 7976,
      "edge.": 7977,
      "Nashville": 7978,
      "October": 7979,
      "virtuo": 7980,
      "slightly": 7981,
      "expensive.": 7982,
      "acoustic": 7983,
      "ALSO": 7984,
      "Killswitch": 7985,
      "Lionel": 7986,
      "chatting": 7987,
      "Esso": 7988,
      "Palmer": 7989,
      "Sammy": 7990,
      "Zimmer": 7991,
      "visit": 7992,
      "Hendrix.": 7993,
      "Soundsystem": 7994,
      "Revolution": 7995,
      "techniques": 7996,
      "respond": 7997,
      "professional": 7998,
      "Presley": 7999,
      "Crimson,": 8000,
      "Gambino": 8001,
      "Rhythm": 8002,
      "pattern": 8003,
      "pitched": 8004,
      "necessarily": 8005,
      "convinc": 8006,
      "truth,": 8007,
      "trivia": 8008,
      "Spotify.": 8009,
      "\"Surfin'": 8010,
      "Reminds": 8011,
      "Virgin": 8012,
      "eclectic": 8013,
      "Huey": 8014,
      "Ingrid": 8015,
      "Kathleen": 8016,
      "Lumine": 8017,
      "Ocean": 8018,
      "Pachelbel": 8019,
      "Sulliv": 8020,
      "Spectre": 8021,
      "Sylvan": 8022,
      "TLC": 8023,
      "UB40": 8024,
      "Uptown": 8025,
      "##curity": 8026,
      "exhaust": 8027,
      "Deerhunter": 8028,
      "Phoenix": 8029,
      "accomplished": 8030,
      "virtuoso": 8031,
      "\"d": 8032,
      "\"a": 8033,
      "\"t": 8034,
      "\"m": 8035,
      "\"b": 8036,
      "\"so": 8037,
      "\"one": 8038,
      "\"be": 8039,
      "\"we": 8040,
      "\"sh": 8041,
      "\"de": 8042,
      "\"pop": 8043,
      "#1": 8044,
      "#4": 8045,
      "$4": 8046,
      "$50": 8047,
      "'W": 8048,
      "'em": 8049,
      "(C": 8050,
      ",wh": 8051,
      "16": 8052,
      "17": 8053,
      "2.": 8054,
      "2?": 8055,
      "26": 8056,
      "27": 8057,
      "22": 8058,
      "2/": 8059,
      "3r": 8060,
      "30's": 8061,
      "4th": 8062,
      "6:": 8063,
      "7.": 8064,
      "73": 8065,
      "8.": 8066,
      "80": 8067,
      "80s?": 8068,
      "90s,": 8069,
      "Av": 8070,
      "Ap": 8071,
      "AG": 8072,
      "A-": 8073,
      "AT": 8074,
      "Aar": 8075,
      "Amon": 8076,
      "Acr": 8077,
      "Avat": 8078,
      "B-": 8079,
      "Bus": 8080,
      "Ble": 8081,
      "Bast": 8082,
      "Bia": 8083,
      "Bug": 8084,
      "Body": 8085,
      "Benn": 8086,
      "Box": 8087,
      "Brew": 8088,
      "Bott": 8089,
      "Besid": 8090,
      "Bass.": 8091,
      "BOTH": 8092,
      "BEST": 8093,
      "Breath": 8094,
      "BMA": 8095,
      "Bites": 8096,
      "Birming": 8097,
      "Banks": 8098,
      "Broadway": 8099,
      "Ca": 8100,
      "CC": 8101,
      "Cow": 8102,
      "Cong": 8103,
      "Cop": 8104,
      "Cee": 8105,
      "Creat": 8106,
      "Came": 8107,
      "Cur": 8108,
      "Cree": 8109,
      "Catch": 8110,
      "Cub": 8111,
      "Cred": 8112,
      "Certain": 8113,
      "Cult": 8114,
      "Count": 8115,
      "Camp": 8116,
      "Cinc": 8117,
      "Cartoon": 8118,
      "Citiz": 8119,
      "DE": 8120,
      "D-": 8121,
      "Der": 8122,
      "Don": 8123,
      "Den": 8124,
      "Des": 8125,
      "Dum": 8126,
      "Dall": 8127,
      "Dig": 8128,
      "Dick": 8129,
      "Dyn": 8130,
      "Darb": 8131,
      "Dont": 8132,
      "Despac": 8133,
      "Downt": 8134,
      "Dirty": 8135,
      "Dennis": 8136,
      "D2?": 8137,
      "Ep": 8138,
      "E.": 8139,
      "Ear": 8140,
      "Ett": 8141,
      "Eigh": 8142,
      "Eh,": 8143,
      "Ext": 8144,
      "Egy": 8145,
      "Either": 8146,
      "Fe": 8147,
      "Fin": 8148,
      "Fus": 8149,
      "Fly": 8150,
      "Fra": 8151,
      "Fast": 8152,
      "Fact": 8153,
      "FEAR": 8154,
      "Fail": 8155,
      "Field": 8156,
      "FIR": 8157,
      "Face.": 8158,
      "FIND": 8159,
      "FIL": 8160,
      "Fame.": 8161,
      "Fitz": 8162,
      "Gone": 8163,
      "Grey": 8164,
      "GUY": 8165,
      "Gentle": 8166,
      "Gimme": 8167,
      "HO": 8168,
      "Hon": 8169,
      "Hit": 8170,
      "Hut": 8171,
      "Hee": 8172,
      "Had": 8173,
      "Home": 8174,
      "Heel": 8175,
      "Hud": 8176,
      "HEA": 8177,
      "Hoot": 8178,
      "Hm,": 8179,
      "Hanna": 8180,
      "Harb": 8181,
      "Hsu": 8182,
      "Humble": 8183,
      "IP": 8184,
      "Iber": 8185,
      "Jess": 8186,
      "Jull": 8187,
      "JES": 8188,
      "Jaw": 8189,
      "Jeth": 8190,
      "Jeremy": 8191,
      "KH": 8192,
      "Kro": 8193,
      "Kne": 8194,
      "Krack": 8195,
      "Korn": 8196,
      "L.": 8197,
      "LA": 8198,
      "Len": 8199,
      "Les": 8200,
      "Lot": 8201,
      "Lut": 8202,
      "Lee": 8203,
      "Liv": 8204,
      "Loud": 8205,
      "Lov": 8206,
      "Living": 8207,
      "Loe": 8208,
      "Lately,": 8209,
      "MI": 8210,
      "Mic": 8211,
      "Moo": 8212,
      "Mis": 8213,
      "Much": 8214,
      "Mix": 8215,
      "Max": 8216,
      "MIND": 8217,
      "Magn": 8218,
      "Makes": 8219,
      "Meaning": 8220,
      "MIGHT": 8221,
      "NV": 8222,
      "Nas.": 8223,
      "Ol": 8224,
      "Ow": 8225,
      "O'": 8226,
      "OH": 8227,
      "OO": 8228,
      "Olly": 8229,
      "Ont": 8230,
      "Ouch": 8231,
      "Other": 8232,
      "Ober": 8233,
      "Oak": 8234,
      "OVER": 8235,
      "Otis": 8236,
      "Pool": 8237,
      "Pass": 8238,
      "Pag": 8239,
      "Pix": 8240,
      "Pris": 8241,
      "Press": 8242,
      "Pony.": 8243,
      "Panic": 8244,
      "Pistol": 8245,
      "Ris": 8246,
      "Round": 8247,
      "Roth": 8248,
      "Rine": 8249,
      "Rel": 8250,
      "Rest": 8251,
      "Rach": 8252,
      "Ratt": 8253,
      "Rival": 8254,
      "Rabb": 8255,
      "RAD": 8256,
      "Rubber": 8257,
      "SU": 8258,
      "Sea": 8259,
      "Sit": 8260,
      "Spe": 8261,
      "Sel": 8262,
      "Sign": 8263,
      "Squire": 8264,
      "Sia,": 8265,
      "SMIL": 8266,
      "TS": 8267,
      "TI": 8268,
      "TW": 8269,
      "Tin": 8270,
      "Ted": 8271,
      "Tet": 8272,
      "Tam": 8273,
      "Trum": 8274,
      "Tub": 8275,
      "Tree.": 8276,
      "Tull": 8277,
      "Ticket": 8278,
      "Tues": 8279,
      "Trent": 8280,
      "Tina": 8281,
      "Tower": 8282,
      "Town.": 8283,
      "Tcha": 8284,
      "Uh,": 8285,
      "Uta": 8286,
      "Upris": 8287,
      "Va": 8288,
      "VR": 8289,
      "VH": 8290,
      "Ves": 8291,
      "Val": 8292,
      "Vall": 8293,
      "Vio": 8294,
      "Vene": 8295,
      "Vedd": 8296,
      "Vict": 8297,
      "View": 8298,
      "Wy": 8299,
      "Win": 8300,
      "Wed": 8301,
      "Wind": 8302,
      "Wack": 8303,
      "Won't": 8304,
      "Wild": 8305,
      "Wave": 8306,
      "Wife": 8307,
      "Weap": 8308,
      "Wreck": 8309,
      "X,": 8310,
      "Ya": 8311,
      "Yellow": 8312,
      "YEARS": 8313,
      "Zep": 8314,
      "Zomb": 8315,
      "ak": 8316,
      "ast": 8317,
      "avin": 8318,
      "ain't": 8319,
      "aldean": 8320,
      "bb": 8321,
      "b,": 8322,
      "b6": 8323,
      "bop": 8324,
      "bio": 8325,
      "bip": 8326,
      "bub": 8327,
      "bird": 8328,
      "beaut": 8329,
      "body": 8330,
      "boot": 8331,
      "booked": 8332,
      "breath": 8333,
      "bored.": 8334,
      "cat": 8335,
      "cet": 8336,
      "cine": 8337,
      "cree": 8338,
      "cake": 8339,
      "capp": 8340,
      "city.": 8341,
      "cities": 8342,
      "cartoon": 8343,
      "candle": 8344,
      "dee": 8345,
      "dun": 8346,
      "dang": 8347,
      "dare": 8348,
      "dying": 8349,
      "deaf": 8350,
      "er": 8351,
      "eat": 8352,
      "est": 8353,
      "entry": 8354,
      "eh?": 8355,
      "esc": 8356,
      "fm": 8357,
      "fid": 8358,
      "fond": 8359,
      "flo": 8360,
      "father": 8361,
      "gy": 8362,
      "gear": 8363,
      "gee": 8364,
      "gig": 8365,
      "gap": 8366,
      "gag": 8367,
      "gard": 8368,
      "hid": 8369,
      "hide": 8370,
      "hug": 8371,
      "hired": 8372,
      "hooked": 8373,
      "hung": 8374,
      "hoodie": 8375,
      "imit": 8376,
      "je": 8377,
      "ja": 8378,
      "jour": 8379,
      "jac": 8380,
      "jump": 8381,
      "kor": 8382,
      "kar": 8383,
      "keros": 8384,
      "kesha": 8385,
      "las": 8386,
      "loo": 8387,
      "lear": 8388,
      "lame": 8389,
      "lean": 8390,
      "lend": 8391,
      "log": 8392,
      "latin": 8393,
      "lower": 8394,
      "london": 8395,
      "mt": 8396,
      "mp": 8397,
      "mus": 8398,
      "mist": 8399,
      "mart": 8400,
      "mike": 8401,
      "mirr": 8402,
      "n'": 8403,
      "nat": 8404,
      "nie": 8405,
      "nah,": 8406,
      "national": 8407,
      "nurs": 8408,
      "narrow": 8409,
      "ow": 8410,
      "ole": 8411,
      "pan": 8412,
      "pot": 8413,
      "pill": 8414,
      "pure": 8415,
      "pour": 8416,
      "porn": 8417,
      "pure.": 8418,
      "pair": 8419,
      "pione": 8420,
      "pirate": 8421,
      "r.": 8422,
      "rout": 8423,
      "rocket": 8424,
      "rule": 8425,
      "robb": 8426,
      "rocked": 8427,
      "rena": 8428,
      "sed": 8429,
      "sar": 8430,
      "sear": 8431,
      "sir": 8432,
      "sal": 8433,
      "sill": 8434,
      "sway": 8435,
      "sand": 8436,
      "sons": 8437,
      "samp": 8438,
      "session": 8439,
      "since.": 8440,
      "syste": 8441,
      "side.": 8442,
      "smell": 8443,
      "tin": 8444,
      "ten": 8445,
      "tear": 8446,
      "tee": 8447,
      "tag": 8448,
      "team": 8449,
      "tight.": 8450,
      "table": 8451,
      "tamb": 8452,
      "tasking": 8453,
      "ur": 8454,
      "uk": 8455,
      "uh": 8456,
      "une": 8457,
      "ve": 8458,
      "vic": 8459,
      "vir": 8460,
      "vast": 8461,
      "veg": 8462,
      "vital": 8463,
      "voted": 8464,
      "wing": 8465,
      "wind": 8466,
      "wall": 8467,
      "wore": 8468,
      "weak": 8469,
      "wider": 8470,
      "wail": 8471,
      "wished": 8472,
      "wall.": 8473,
      "weake": 8474,
      "wealth": 8475,
      "ya,": 8476,
      "y2k": 8477,
      "yrs": 8478,
      "z.": 8479,
      "z!": 8480,
      "zipp": 8481,
      "##uu": 8482,
      "##s'": 8483,
      "##sin": 8484,
      "##ss.": 8485,
      "##sity": 8486,
      "##ien": 8487,
      "##iven": 8488,
      "##ied.": 8489,
      "##i've": 8490,
      "##iary": 8491,
      "##ient.": 8492,
      "##i'm": 8493,
      "##cé": 8494,
      "##cas": 8495,
      "##cid": 8496,
      "##cell": 8497,
      "##cue": 8498,
      "##ced.": 8499,
      "##co.": 8500,
      "##nk": 8501,
      "##nce": 8502,
      "##nia": 8503,
      "##ning,": 8504,
      "##nium": 8505,
      "##ness,": 8506,
      "##d,": 8507,
      "##der.": 8508,
      "##down": 8509,
      "##dy?": 8510,
      "##vice.": 8511,
      "##vict": 8512,
      "##voted": 8513,
      "##oin": 8514,
      "##oqu": 8515,
      "##oids": 8516,
      "##rea": 8517,
      "##rom": 8518,
      "##rig": 8519,
      "##rian": 8520,
      "##ride": 8521,
      "##rne": 8522,
      "##rique": 8523,
      "##eh": 8524,
      "##e!": 8525,
      "##ender": 8526,
      "##eed,": 8527,
      "##epend": 8528,
      "##ai": 8529,
      "##aic": 8530,
      "##aind": 8531,
      "##a\",": 8532,
      "##that's": 8533,
      "##SE": 8534,
      "##lent": 8535,
      "##lust": 8536,
      "##lam": 8537,
      "##los": 8538,
      "##lah": 8539,
      "##led,": 8540,
      "##law": 8541,
      "##lished": 8542,
      "##lific": 8543,
      "##p\"": 8544,
      "##phe": 8545,
      "##pol": 8546,
      "##pack": 8547,
      "##pace": 8548,
      "##w\"": 8549,
      "##wor": 8550,
      "##want": 8551,
      "##wise": 8552,
      "##walk": 8553,
      "##ki": 8554,
      "##kt": 8555,
      "##k!": 8556,
      "##king.": 8557,
      "##gu": 8558,
      "##go": 8559,
      "##ges": 8560,
      "##ge.": 8561,
      "##gaz": 8562,
      "##gian": 8563,
      "##giz": 8564,
      "##gative": 8565,
      "##m\"": 8566,
      "##mar": 8567,
      "##mist": 8568,
      "##made": 8569,
      "##mon.": 8570,
      "##motif": 8571,
      "##mok": 8572,
      "##mouth": 8573,
      "##hd": 8574,
      "##hing.": 8575,
      "##hil": 8576,
      "##host": 8577,
      "##hol": 8578,
      "##health": 8579,
      "##hart,": 8580,
      "##y...": 8581,
      "##yde": 8582,
      "##Ir": 8583,
      "##It": 8584,
      "##ILL": 8585,
      "##IAR": 8586,
      "##Love": 8587,
      "##LES": 8588,
      "##EP": 8589,
      "##?.": 8590,
      "##ba": 8591,
      "##bid": 8592,
      "##ber.": 8593,
      "##by.": 8594,
      "##bres": 8595,
      "##bod": 8596,
      "##born": 8597,
      "##bye": 8598,
      "##buss": 8599,
      "##bott": 8600,
      "##!?!": 8601,
      "##,'": 8602,
      "##,T": 8603,
      "##-t": 8604,
      "##-w": 8605,
      "##-y": 8606,
      "##-and": 8607,
      "##-ish": 8608,
      "##-up": 8609,
      "##-ty": 8610,
      "##for": 8611,
      "##fle": 8612,
      "##fun": 8613,
      "##fra": 8614,
      "##fast": 8615,
      "##fire": 8616,
      "##'S": 8617,
      "##'all": 8618,
      "##'mon": 8619,
      "##89": 8620,
      "##9,": 8621,
      "##zill": 8622,
      "##zue": 8623,
      "##ARE": 8624,
      "##A-C-H": 8625,
      "##ju": 8626,
      "##jay": 8627,
      "##jov": 8628,
      "##BE": 8629,
      "##BU": 8630,
      "##Big": 8631,
      "##Bride": 8632,
      "##RT": 8633,
      "##RD": 8634,
      "##Rule": 8635,
      "##MT": 8636,
      "##Do": 8637,
      "##DER": 8638,
      "##DAT": 8639,
      "##xim": 8640,
      "##xpect": 8641,
      "##7?": 8642,
      "##2+": 8643,
      "##US.": 8644,
      "##40's": 8645,
      "##WN": 8646,
      "##WH": 8647,
      "##What": 8648,
      "##/hip": 8649,
      "##/Big": 8650,
      "##X.": 8651,
      "##XT": 8652,
      "tha": 8653,
      "##oura": 8654,
      "##ous,": 8655,
      "##ous?": 8656,
      "##atre": 8657,
      "##atell": 8658,
      "##ates,": 8659,
      "##atform": 8660,
      "##eric": 8661,
      "##erie": 8662,
      "##in?": 8663,
      "##ines": 8664,
      "##inor": 8665,
      "##inter": 8666,
      "##innat": 8667,
      "theory.": 8668,
      "##ones.": 8669,
      "##onvict": 8670,
      "##ea,": 8671,
      "##eams": 8672,
      "##east.": 8673,
      "##ll.": 8674,
      "##rees": 8675,
      "##restr": 8676,
      "##ndition": 8677,
      "##stop": 8678,
      "##stant": 8679,
      "##stah": 8680,
      "##ster,": 8681,
      "##ster?": 8682,
      "##stance.": 8683,
      "youth.": 8684,
      "lip": 8685,
      "lift": 8686,
      "##icorn": 8687,
      "##icient": 8688,
      "##ica\"": 8689,
      "##icide.": 8690,
      "##ve,": 8691,
      "##vell": 8692,
      "##vest": 8693,
      "##vett": 8694,
      "##ved.": 8695,
      "##kelly": 8696,
      "##ani": 8697,
      "##anck": 8698,
      "##anical": 8699,
      "##oring": 8700,
      "##orrow": 8701,
      "##orhead": 8702,
      "##ita": 8703,
      "##itt": 8704,
      "##itter": 8705,
      "##ittle": 8706,
      "##itled": 8707,
      "##ities?": 8708,
      "##itmotif": 8709,
      "itun": 8710,
      "it\".": 8711,
      "it'd": 8712,
      "item": 8713,
      "that...": 8714,
      "##asc": 8715,
      "##ased": 8716,
      "##ass?": 8717,
      "##owoo": 8718,
      "is...": 8719,
      "likely.": 8720,
      "##he.": 8721,
      "##hedu": 8722,
      "##hews": 8723,
      "##used": 8724,
      "##uss?": 8725,
      "##ushed": 8726,
      "##ay?": 8727,
      "##ut,": 8728,
      "##ution.": 8729,
      "ham": 8730,
      "ha.": 8731,
      "hack": 8732,
      "hands": 8733,
      "##eds": 8734,
      "only.": 8735,
      "beer": 8736,
      "bele": 8737,
      "bell.": 8738,
      "in,": 8739,
      "inch": 8740,
      "invented": 8741,
      "music..": 8742,
      "musically,": 8743,
      "so...": 8744,
      "sopr": 8745,
      "soothing.": 8746,
      "sophist": 8747,
      "##ar\"": 8748,
      "##arch": 8749,
      "song!!": 8750,
      "##llywood": 8751,
      "##ism": 8752,
      "##ise,": 8753,
      "##ism?": 8754,
      "doctor": 8755,
      "dozen": 8756,
      "##iders": 8757,
      "##ider.": 8758,
      "##idge": 8759,
      "##idence": 8760,
      "washing": 8761,
      "##let": 8762,
      "##le,": 8763,
      "##ley.": 8764,
      "##lete": 8765,
      "alive.": 8766,
      "alco": 8767,
      "##iroqu": 8768,
      "steel": 8769,
      "stark": 8770,
      "stepp": 8771,
      "starboy": 8772,
      "stef": 8773,
      "##et?": 8774,
      "##etite": 8775,
      "##ala": 8776,
      "##alay": 8777,
      "##alch": 8778,
      "##als,": 8779,
      "##alach": 8780,
      "Theory.": 8781,
      "Theatre": 8782,
      "##cks": 8783,
      "##umes": 8784,
      "##erecord": 8785,
      "##om.": 8786,
      "##omic": 8787,
      "##omnium": 8788,
      "##ver\"": 8789,
      "##very": 8790,
      "##verse": 8791,
      "##inking": 8792,
      "##inkill": 8793,
      "antic": 8794,
      "bak": 8795,
      "baby.": 8796,
      "It’s": 8797,
      "butter": 8798,
      "but...": 8799,
      "##cherry": 8800,
      "##chanical": 8801,
      "Yeah‚": 8802,
      "##tha": 8803,
      "##ello": 8804,
      "##elle": 8805,
      "##elle.": 8806,
      "really‚": 8807,
      "list!": 8808,
      "fad": 8809,
      "fave": 8810,
      "favo": 8811,
      "faves.": 8812,
      "fame.": 8813,
      "facing": 8814,
      "##ented": 8815,
      "##entious": 8816,
      "##ently?": 8817,
      "##ential.": 8818,
      "force": 8819,
      "former": 8820,
      "forced": 8821,
      "listening.": 8822,
      "knows.": 8823,
      "knowled": 8824,
      "height": 8825,
      "##ither,": 8826,
      "##opical": 8827,
      "##opping": 8828,
      "goodies.": 8829,
      "##eez": 8830,
      "notes,": 8831,
      "##illed": 8832,
      "##illite": 8833,
      "neo": 8834,
      "negative": 8835,
      "reh": 8836,
      "reven": 8837,
      "reffer": 8838,
      "report": 8839,
      "revival": 8840,
      "rebel": 8841,
      "reception": 8842,
      "rendition": 8843,
      "album's": 8844,
      "too...": 8845,
      "one;": 8846,
      "mosh": 8847,
      "plastic": 8848,
      "plugged": 8849,
      "platform": 8850,
      "what!": 8851,
      "whatso": 8852,
      "Oh?": 8853,
      "##imin": 8854,
      "##iment.": 8855,
      "##imals": 8856,
      "justice": 8857,
      "didn;t": 8858,
      "lovely.": 8859,
      "##ional": 8860,
      "##ions,": 8861,
      "suit": 8862,
      "suffer": 8863,
      "sudd": 8864,
      "suits": 8865,
      "suicide": 8866,
      "suicide.": 8867,
      "hero": 8868,
      "theirs?": 8869,
      "heard!": 8870,
      "##ads": 8871,
      "##ad.": 8872,
      "##aded": 8873,
      "freak": 8874,
      "frustr": 8875,
      "francis": 8876,
      "franz": 8877,
      "me;": 8878,
      "meme.": 8879,
      "mechanical": 8880,
      "You.": 8881,
      "You'": 8882,
      "Youth": 8883,
      "anyways": 8884,
      "allure": 8885,
      "alley": 8886,
      "##fford": 8887,
      "##ffield.": 8888,
      "##ryche": 8889,
      "##unic": 8890,
      "##une?": 8891,
      "##unched": 8892,
      "##unger": 8893,
      "##rac": 8894,
      "##rave": 8895,
      "playing,": 8896,
      "player,": 8897,
      "They'll": 8898,
      "outstand": 8899,
      "outfits": 8900,
      "sound!": 8901,
      "##amele": 8902,
      "##nton": 8903,
      "##ist?": 8904,
      "##istor": 8905,
      "shut": 8906,
      "shook": 8907,
      "share": 8908,
      "shocks": 8909,
      "shaking": 8910,
      "she'll": 8911,
      "she'd": 8912,
      "Well.": 8913,
      "go!": 8914,
      "go,": 8915,
      "org": 8916,
      "No?": 8917,
      "arctic": 8918,
      "seek": 8919,
      "##omething": 8920,
      "##roid": 8921,
      "##roken": 8922,
      "lot;": 8923,
      "##..I": 8924,
      "##..the": 8925,
      "##..you": 8926,
      "timeles": 8927,
      "ever?": 8928,
      "ever,": 8929,
      "convers": 8930,
      "convey": 8931,
      "constant": 8932,
      "has?": 8933,
      "maint": 8934,
      "masters": 8935,
      "magaz": 8936,
      "##ocks.": 8937,
      "##ockwork": 8938,
      "##ppos": 8939,
      "am!": 8940,
      "##erson,": 8941,
      "been.": 8942,
      "##ool,": 8943,
      "kinds.": 8944,
      "kinds?": 8945,
      "courage": 8946,
      "cousin": 8947,
      "##iger": 8948,
      "##igan": 8949,
      "##ant!": 8950,
      "##antom": 8951,
      "Thought": 8952,
      "Thron": 8953,
      "##ertw": 8954,
      "##gees.": 8955,
      "##gends": 8956,
      "##art\"": 8957,
      "##art.": 8958,
      "##artender": 8959,
      "ups": 8960,
      "upon": 8961,
      "upgr": 8962,
      "##ural": 8963,
      "intric": 8964,
      "intens": 8965,
      "intrig": 8966,
      "intertw": 8967,
      "this!": 8968,
      "previous": 8969,
      "who.": 8970,
      "##s?'": 8971,
      "Haw": 8972,
      "Hand": 8973,
      "Happ": 8974,
      "Having": 8975,
      "pop-s": 8976,
      "pop-rock": 8977,
      "pop2k": 8978,
      "##eanut": 8979,
      "##soles": 8980,
      "more!": 8981,
      "more,": 8982,
      "stuff...": 8983,
      "dem": 8984,
      "device": 8985,
      "devoted": 8986,
      "delete": 8987,
      "when?": 8988,
      "feet": 8989,
      "fender": 8990,
      "##ila": 8991,
      "##iler.": 8992,
      "##iland": 8993,
      "##ilies": 8994,
      "##pel.": 8995,
      "him/": 8996,
      "agre": 8997,
      "were!": 8998,
      "rock!": 8999,
      "rocks.": 9000,
      "rockab": 9001,
      "##essa": 9002,
      "chain": 9003,
      "champ": 9004,
      "does?": 9005,
      "Sober": 9006,
      "Social": 9007,
      "other?": 9008,
      "weed": 9009,
      "we'd": 9010,
      "##way\".": 9011,
      "##aming": 9012,
      "##ament": 9013,
      "artic": 9014,
      "commeric": 9015,
      "common": 9016,
      "commit": 9017,
      "comfort": 9018,
      "##belie": 9019,
      "there!": 9020,
      "old﻿.": 9021,
      "man's": 9022,
      "manuf": 9023,
      "artistic": 9024,
      "##andise": 9025,
      "word.": 9026,
      "worse.": 9027,
      "worried": 9028,
      "Sheffield.": 9029,
      "clue": 9030,
      "click": 9031,
      "cliche": 9032,
      "cleaning": 9033,
      "still?": 9034,
      "Whose": 9035,
      "year's": 9036,
      "meaning.": 9037,
      "means,": 9038,
      "##ore.": 9039,
      "##ery?": 9040,
      "##ape.": 9041,
      "##apman,": 9042,
      "##apeake": 9043,
      "##apella": 9044,
      "exagger": 9045,
      "act.": 9046,
      "act?": 9047,
      "acting": 9048,
      "actor": 9049,
      "acted": 9050,
      "acts?": 9051,
      "actres": 9052,
      "activ": 9053,
      "action.": 9054,
      "nowhere": 9055,
      "##ably": 9056,
      "##aby,": 9057,
      "##ablished": 9058,
      "##ain.": 9059,
      "though!": 9060,
      "##ify.": 9061,
      "died,": 9062,
      "probably.": 9063,
      "provides": 9064,
      "prolific": 9065,
      "use.": 9066,
      "used.": 9067,
      "usher": 9068,
      "wanting": 9069,
      "called.": 9070,
      "grade": 9071,
      "grinding": 9072,
      "cool;": 9073,
      "save": 9074,
      "sale": 9075,
      "##ation?": 9076,
      "##ation!": 9077,
      "best!": 9078,
      "everytime": 9079,
      "everybod": 9080,
      "Island.": 9081,
      "Islam": 9082,
      "Megade": 9083,
      "awes": 9084,
      "awful": 9085,
      "fun?": 9086,
      "funer": 9087,
      "St.": 9088,
      "State": 9089,
      "Storm": 9090,
      "Stuff": 9091,
      "States.": 9092,
      "Staind": 9093,
      "no?": 9094,
      "noise.": 9095,
      "##aged.": 9096,
      "##ards": 9097,
      "##ardinal": 9098,
      "showed": 9099,
      "way\"": 9100,
      "then!": 9101,
      "last.": 9102,
      "And?": 9103,
      "people?": 9104,
      "people,": 9105,
      "##ango": 9106,
      "evening.": 9107,
      "Beck": 9108,
      "Before": 9109,
      "##ipment": 9110,
      "Chill": 9111,
      "Chun": 9112,
      "Chain": 9113,
      "Cher,": 9114,
      "Chandelier.": 9115,
      "Chamele": 9116,
      "Chapman,": 9117,
      "enc": 9118,
      "enlight": 9119,
      "enclos": 9120,
      "fans?": 9121,
      "fancy": 9122,
      "##ular\"": 9123,
      "##olar": 9124,
      "##olog": 9125,
      "lively.": 9126,
      "becomes": 9127,
      "##ny\"": 9128,
      "classics!": 9129,
      "Oklah": 9130,
      "cheat": 9131,
      "cheerful": 9132,
      "##cii": 9133,
      "##ci.": 9134,
      "##cience.": 9135,
      "##resent": 9136,
      "bigger.": 9137,
      "##ease.": 9138,
      "long,": 9139,
      "remembered.": 9140,
      "##ies\"": 9141,
      "##ance?": 9142,
      "We'll": 9143,
      "Weiland": 9144,
      "over?": 9145,
      "over!": 9146,
      "overus": 9147,
      "overture": 9148,
      "overpro": 9149,
      "overwor": 9150,
      "bands!": 9151,
      "##kes,": 9152,
      "make.": 9153,
      "days!": 9154,
      "##lesias": 9155,
      "things?": 9156,
      "start?": 9157,
      "singer-s": 9158,
      "singer/s": 9159,
      "compose": 9160,
      "twice.": 9161,
      "##rical.": 9162,
      "##ac?": 9163,
      "##acre": 9164,
      "saw.": 9165,
      "part?": 9166,
      "parts.": 9167,
      "Arena": 9168,
      "Aretha": 9169,
      "Bring": 9170,
      "Break": 9171,
      "Brings": 9172,
      "lookout": 9173,
      "around,": 9174,
      "##ancy": 9175,
      "THANKS": 9176,
      "Alot": 9177,
      "Almost": 9178,
      "##incey": 9179,
      "Really??": 9180,
      "families": 9181,
      "##perhead": 9182,
      "bruno": 9183,
      "breaking": 9184,
      "brother.": 9185,
      "brief": 9186,
      "blur": 9187,
      "blake": 9188,
      "blank": 9189,
      "blowing": 9190,
      "blows": 9191,
      "blah,": 9192,
      "blister": 9193,
      "##ival.": 9194,
      "Blond": 9195,
      "Blues,": 9196,
      "Blanck": 9197,
      "interested.": 9198,
      "interested,": 9199,
      "performers.": 9200,
      "late?": 9201,
      "lately,": 9202,
      "years!": 9203,
      "try,": 9204,
      "moving": 9205,
      "moves": 9206,
      "moves.": 9207,
      "Okay!": 9208,
      "Okay...": 9209,
      "##uds.": 9210,
      "Neo": 9211,
      "Nelly,": 9212,
      "##heric": 9213,
      "voice!": 9214,
      "talent,": 9215,
      "lying": 9216,
      "video,": 9217,
      "videos,": 9218,
      "Decl": 9219,
      "Devil": 9220,
      "Debuss": 9221,
      "comedy.": 9222,
      "##active": 9223,
      "##actured": 9224,
      "work!": 9225,
      "guitars.": 9226,
      "guitars,": 9227,
      "lyricist": 9228,
      "thoughts": 9229,
      "thought,": 9230,
      "thoughts?": 9231,
      "happier": 9232,
      "beforeh": 9233,
      "##ization": 9234,
      "such?": 9235,
      "drill": 9236,
      "dread": 9237,
      "drown": 9238,
      "20.": 9239,
      "20th": 9240,
      "##ups.": 9241,
      "Truck": 9242,
      "Truly": 9243,
      "Tritt": 9244,
      "tele": 9245,
      "unl": 9246,
      "uncom": 9247,
      "unhealth": 9248,
      "##ects.": 9249,
      "recent,": 9250,
      "ok!": 9251,
      "enjoy?": 9252,
      "quit": 9253,
      "quit.": 9254,
      "##ober.": 9255,
      "thru": 9256,
      "thrilled": 9257,
      "afterward": 9258,
      "dont.": 9259,
      "musician,": 9260,
      "leaving.": 9261,
      "scary": 9262,
      "scroll": 9263,
      "schedu": 9264,
      "##ked?": 9265,
      "sport": 9266,
      "spot.": 9267,
      "Inc.": 9268,
      "buy?": 9269,
      "adv": 9270,
      "adap": 9271,
      "adult": 9272,
      "advice": 9273,
      "amazingly": 9274,
      "Goodman": 9275,
      "made?": 9276,
      "When?": 9277,
      "##mented": 9278,
      "strike": 9279,
      "strings": 9280,
      "Shut": 9281,
      "Shout": 9282,
      "hipsters": 9283,
      "happens.": 9284,
      "happening?": 9285,
      "sad?": 9286,
      "##wegian": 9287,
      "letting": 9288,
      "where?": 9289,
      "released.": 9290,
      "dance\"": 9291,
      "opt": 9292,
      "John.": 9293,
      "earned": 9294,
      "##ERT": 9295,
      "you.\"": 9296,
      "doesn't?": 9297,
      "##ender.": 9298,
      "Spoon": 9299,
      "Speaking": 9300,
      "Clay": 9301,
      "Clap": 9302,
      "Clan.": 9303,
      "Clockwork": 9304,
      "Marc": 9305,
      "Mars,": 9306,
      "Marily": 9307,
      "app?": 9308,
      "19th": 9309,
      "Sure!": 9310,
      "##chet": 9311,
      "least,": 9312,
      "cover,": 9313,
      "covering": 9314,
      "covered": 9315,
      "##ogue.": 9316,
      "musicals": 9317,
      "musical,": 9318,
      "Music?": 9319,
      "indie.": 9320,
      "indeed.": 9321,
      "independ": 9322,
      "sorts": 9323,
      "track!": 9324,
      "tracks.": 9325,
      "tracks?": 9326,
      "America": 9327,
      "Man!": 9328,
      "##ashes": 9329,
      "##ashmouth": 9330,
      "bad?": 9331,
      "writer": 9332,
      "writer.": 9333,
      "writting": 9334,
      "highlight": 9335,
      "underrated.": 9336,
      "underwhel": 9337,
      "underrated": 9338,
      "##athen": 9339,
      "leads": 9340,
      "\"Say": 9341,
      "\"Side": 9342,
      "\"Sorry": 9343,
      "\"Sleep": 9344,
      "\"Sugar": 9345,
      "Reg": 9346,
      "Reyn": 9347,
      "Refle": 9348,
      "bass?": 9349,
      "Anarch": 9350,
      "Animals": 9351,
      "Arnel": 9352,
      "station?": 9353,
      "idi": 9354,
      "ident": 9355,
      "mixt": 9356,
      "mixing": 9357,
      "mixes": 9358,
      "mixture": 9359,
      "##mble.": 9360,
      "help.": 9361,
      "Prime": 9362,
      "drums,": 9363,
      "drums?": 9364,
      "drummer.": 9365,
      "rapping.": 9366,
      "rapper,": 9367,
      "CD's": 9368,
      "loan": 9369,
      "lovin": 9370,
      "lo-fi": 9371,
      "person?": 9372,
      "dances": 9373,
      "dancer.": 9374,
      "remains": 9375,
      "Newton": 9376,
      "Excell": 9377,
      "##ference": 9378,
      "weird,": 9379,
      "Project": 9380,
      "Procl": 9381,
      "Probably.": 9382,
      "nice!": 9383,
      "nicely": 9384,
      "tone.": 9385,
      "##ever.": 9386,
      "Where?": 9387,
      "usually,": 9388,
      "Nowhere": 9389,
      "Frou": 9390,
      "Friend": 9391,
      "Friday": 9392,
      "here!": 9393,
      "friend?": 9394,
      "friend,": 9395,
      "friendly": 9396,
      "friends,": 9397,
      "leather": 9398,
      "leitmotif": 9399,
      "legends": 9400,
      "style,": 9401,
      "##ptian": 9402,
      "\"Tr": 9403,
      "\"There": 9404,
      "mind?": 9405,
      "Flag": 9406,
      "Flaming": 9407,
      "Hermit": 9408,
      "Herman's": 9409,
      "Jam.": 9410,
      "Jam,": 9411,
      "James.": 9412,
      "Jamaic": 9413,
      "Jamiroqu": 9414,
      "Love,": 9415,
      "isn't?": 9416,
      "Americans": 9417,
      "American.": 9418,
      "Method": 9419,
      "creates": 9420,
      "##quer": 9421,
      "##quired": 9422,
      "things--": 9423,
      "Adelle.": 9424,
[...]
